{"!":0,"\"":1,"#":2,"$":3,"%":4,"&":5,"'":6,"(":7,")":8,"*":9,"+":10,",":11,"-":12,".":13,"/":14,"0":15,"1":16,"2":17,"3":18,"4":19,"5":20,"6":21,"7":22,"8":23,"9":24,":":25,";":26,"<":27,"=":28,">":29,"?":30,"@":31,"A":32,"B":33,"C":34,"D":35,"E":36,"F":37,"G":38,"H":39,"I":40,"J":41,"K":42,"L":43,"M":44,"N":45,"O":46,"P":47,"Q":48,"R":49,"S":50,"T":51,"U":52,"V":53,"W":54,"X":55,"Y":56,"Z":57,"[":58,"\\":59,"]":60,"^":61,"_":62,"`":63,"a":64,"b":65,"c":66,"d":67,"e":68,"f":69,"g":70,"h":71,"i":72,"j":73,"k":74,"l":75,"m":76,"n":77,"o":78,"p":79,"q":80,"r":81,"s":82,"t":83,"u":84,"v":85,"w":86,"x":87,"y":88,"z":89,"{":90,"|":91,"}":92,"~":93,"¡":94,"¢":95,"£":96,"¤":97,"¥":98,"¦":99,"§":100,"¨":101,"©":102,"ª":103,"«":104,"¬":105,"®":106,"¯":107,"°":108,"±":109,"²":110,"³":111,"´":112,"µ":113,"¶":114,"·":115,"¸":116,"¹":117,"º":118,"»":119,"¼":120,"½":121,"¾":122,"¿":123,"À":124,"Á":125,"Â":126,"Ã":127,"Ä":128,"Å":129,"Æ":130,"Ç":131,"È":132,"É":133,"Ê":134,"Ë":135,"Ì":136,"Í":137,"Î":138,"Ï":139,"Ð":140,"Ñ":141,"Ò":142,"Ó":143,"Ô":144,"Õ":145,"Ö":146,"×":147,"Ø":148,"Ù":149,"Ú":150,"Û":151,"Ü":152,"Ý":153,"Þ":154,"ß":155,"à":156,"á":157,"â":158,"ã":159,"ä":160,"å":161,"æ":162,"ç":163,"è":164,"é":165,"ê":166,"ë":167,"ì":168,"í":169,"î":170,"ï":171,"ð":172,"ñ":173,"ò":174,"ó":175,"ô":176,"õ":177,"ö":178,"÷":179,"ø":180,"ù":181,"ú":182,"û":183,"ü":184,"ý":185,"þ":186,"ÿ":187,"Ā":188,"ā":189,"Ă":190,"ă":191,"Ą":192,"ą":193,"Ć":194,"ć":195,"Ĉ":196,"ĉ":197,"Ċ":198,"ċ":199,"Č":200,"č":201,"Ď":202,"ď":203,"Đ":204,"đ":205,"Ē":206,"ē":207,"Ĕ":208,"ĕ":209,"Ė":210,"ė":211,"Ę":212,"ę":213,"Ě":214,"ě":215,"Ĝ":216,"ĝ":217,"Ğ":218,"ğ":219,"Ġ":220,"ġ":221,"Ģ":222,"ģ":223,"Ĥ":224,"ĥ":225,"Ħ":226,"ħ":227,"Ĩ":228,"ĩ":229,"Ī":230,"ī":231,"Ĭ":232,"ĭ":233,"Į":234,"į":235,"İ":236,"ı":237,"Ĳ":238,"ĳ":239,"Ĵ":240,"ĵ":241,"Ķ":242,"ķ":243,"ĸ":244,"Ĺ":245,"ĺ":246,"Ļ":247,"ļ":248,"Ľ":249,"ľ":250,"Ŀ":251,"ŀ":252,"Ł":253,"ł":254,"Ń":255,"čĊ":256,"Ġd":257,"Ã©":258,"es":259,"ĠĠ":260,"''":261,"en":262,"Ġl":263,"on":264,"er":265,"Ġp":266,"an":267,"Ġde":268,"in":269,"is":270,"re":271,"Ġs":272,"Ġc":273,"ti":274,"Ġa":275,"ou":276,"ĠĠĠĠ":277,"ent":278,"or":279,"le":280,"ar":281,"te":282,"Ġ|":283,"om":284,"qu":285,"et":286,"li":287,"ur":288,"'''":289,"Ġm":290,"Ġla":291,"un":292,"Ġle":293,"it":294,"Ġ1":295,"at":296,"Ġn":297,"ie":298,"tion":299,"ĠÃ":300,"Ġen":301,"est":302,"Ġf":303,"gn":304,"el":305,"Ã¨":306,"al":307,"il":308,"Ġet":309,"=\"":310,"rÃ©":311,"Ġ||":312,"ĠÃł":313,"ant":314,"au":315,"Ġt":316,"our":317,"que":318,"Ġ:":319,"ain":320,"Ġdu":321,"|-":322,"ment":323,"Ġun":324,"Ġest":325,"Ġ(":326,"ol":327,"ĠĠĠĠĠĠĠĠ":328,"ĠL":329,"ri":330,"ra":331,"Ġb":332,"ĠC":333,"us":334,"ĠčĊ":335,"ve":336,"00":337,"ch":338,"Ġdes":339,"Ġ=":340,"ce":341,"lign":342,"ro":343,"ĠS":344,"Ġ2":345,"Ġles":346,"ss":347,"Ġpar":348,"de":349,"ist":350,"ĠM":351,"Ġau":352,"ĠÃ©":353,"mi":354,"ation":355,"Ġv":356,"me":357,"ĠP":358,"ont":359,"si":360,"ĠA":361,"Ġqu":362,"res":363,"se":364,"Ã©g":365,"Ã©e":366,"cent":367,"ĠB":368,"ans":369,"pe":370,"Ġg":371,"Ġ19":372,"center":373,"omain":374,"ci":375,"ĠD":376,"til":377,"la":378,"Ġ''":379,"Ġcom":380,"ĠT":381,"ĠdÃ©":382,"ate":383,"eu":384,"tilis":385,"ĠrÃ©":386,"'''''":387,"ta":388,"orie":389,"atÃ©g":390,"ter":391,"tÃ©":392,"atÃ©gorie":393,"Ġre":394,"CatÃ©gorie":395,"ic":396,"ais":397,"Ġpour":398,"ff":399,"mp":400,"ĠR":401,"align":402,"Ġ.":403,"oi":404,"Ġin":405,"remi":406,"Ġj":407,"ĠE":408,"ne":409,"di":410,"ĠF":411,"Ġune":412,"Ġch":413,"ac":414,"op":415,"ge":416,"Ġdomain":417,"ai":418,"Ġpl":419,"ot":420,"Ġdans":421,"as":422,"Ġ'''":423,"ht":424,"ĠI":425,"Ġ?":426,"ateur":427,"Ġalign":428,"Ġse":429,"um":430,"les":431,"ran":432,"col":433,"âĢ":434,"Ġpremi":435,"ale":436,"veau":437,"ĠG":438,"Ġqui":439,"ers":440,"tilisateur":441,"istant":442,"Ass":443,"tu":444,"am":445,"vi":446,"Utilisateur":447,"Assistant":448,"rou":449,"01":450,"\"|":451,"ĠJ":452,"th":453,"Ġni":454,"Ã¨re":455,"elle":456,"ĠÂ":457,"Ġque":458,"ond":459,"os":460,"ann":461,"ĠN":462,"Ġniveau":463,"end":464,"ui":465,"ĠH":466,"ord":467,"oc":468,"Ġcon":469,"Ġdi":470,"ab":471,"Ġpro":472,"tre":473,"ine":474,"Ġe":475,"}}":476,"ion":477,"Ġ3":478,"ww":479,"Ġpremier":480,"Ġsur":481,"ille":482,"ub":483,"19":484,"tern":485,"Ġplus":486,"ay":487,"st":488,"Ġdomaine":489,"Ã©r":490,"Ġst":491,"Ġnom":492,"ut":493,"and":494,"ul":495,"ue":496,"urs":497,"ap":498,"Ã©s":499,"âĢĻ":500,"||":501,"Ġh":502,"ux":503,"vec":504,"ing":505,"10":506,"yle":507,"co":508,"Ã©es":509,"Ġ4":510,"bre":511,"Ġavec":512,"sion":513,"FF":514,"ĠW":515,"|'''''":516,"im":517,"com":518,"ĠQ":519,"Ã¨s":520,"ette":521,"Ġ-":522,"Ġ200":523,"ĠLa":524,"id":525,"ĠV":526,"ts":527,"ĠĠĠĠĠĠĠĠĠĠĠĠ":528,"Ġou":529,"Le":530,"ĠK":531,"sp":532,"ence":533,"ĠLe":534,"Ã¨me":535,"Ġil":536,"Ġra":537,"ait":538,"ĠĠĠ":539,"une":540,"Ġr":541,"Ġ10":542,"pr":543,"ode":544,"Ġ199":545,"20":546,"ad":547,"Ġex":548,"art":549,"ard":550,"che":551,"uc":552,"Ġstyle":553,"ous":554,"agn":555,"ure":556,"Ãª":557,"80":558,"mÃ©":559,"uis":560,"lle":561,"Ġte":562,"mes":563,"aire":564,"Ġsi":565,"ĠIl":566,"ver":567,"ag":568,"30":569,"ght":570,"ques":571,"ays":572,"ort":573,"Ġsont":574,"ĠprÃ©":575,"//":576,"Ġo":577,"od":578,"Ġaux":579,"tif":580,"ces":581,"ft":582,"tp":583,"itÃ©":584,"Ġpo":585,"ĠÂ»":586,"http":587,"://":588,"age":589,"Ġar":590,"color":591,"tions":592,"ien":593,"Ġ,":594,"ĠO":595,"Ġmin":596,"Ġcomm":597,"Ã©n":598,"ĠQu":599,"ĠÃ©tÃ©":600,"ois":601,"gist":602,"pp":603,"xt":604,"ique":605,"ack":606,"ser":607,"Ġcont":608,"nd":609,"Ġcomp":610,"ir":611,"ors":612,"ĠCh":613,"Ġpays":614,"ĠÂ«":615,"Ġcol":616,"orm":617,"ternet":618,"ass":619,"ites":620,"Ġdeux":621,"out":622,"utilis":623,"Ġann":624,"Ġac":625,"ill":626,"ig":627,"Ġal":628,"ong":629,"lub":630,"Ġ5":631,"Ġparti":632,"www":633,"lig":634,"ational":635,"Ġ7":636,"vel":637,"ec":638,").":639,"Ġson":640,"gcolor":641,"right":642,"cope":643,"ert":644,"tres":645,"eux":646,"ali":647,"Ġdis":648,"Ġce":649,"ib":650,"vis":651,"onde":652,"Ġpr":653,"Ġpeu":654,"Un":655,"og":656,"em":657,"Ġ6":658,"ance":659,"Ġmais":660,"vÃ©":661,"Ġutilis":662,"qui":663,"aux":664,"ph":665,"rique":666,"--":667,"vant":668,"iste":669,"omaine":670,"ons":671,"Ġscope":672,"Ġ201":673,"22":674,"rit":675,"ĠCom":676,"ric":677,"onn":678,"40":679,"Ġfond":680,"Ġclub":681,"Ġ0":682,"entre":683,"Ġbgcolor":684,"50":685,"Ã©ra":686,"tique":687,"Ġfin":688,"ĠĠĠĠĠĠĠĠĠĠĠĠĠĠĠĠ":689,"),":690,"jour":691,"ich":692,"Les":693,"tr":694,"Ġnational":695,"able":696,"grou":697,"Ġ'":698,"lass":699,"ow":700,"iÃ¨me":701,"left":702,"Ġpas":703,"lÃ©":704,"oir":705,"Ã§":706,"Ġgran":707,":#":708,"'''.":709,"oit":710,"Ġcar":711,"regist":712,"ground":713,"ier":714,"ĠEn":715,"opp":716,"ackground":717,"Ġne":718,"200":719,"rÃ©s":720,"12":721,"ob":722,"Ġsec":723,"|.":724,"Ġma":725,"ations":726,"''''":727,"Ġ20":728,"amp":729,"rois":730,"ik":731,"Ġsu":732,"all":733,"he":734,"ĠrÃ©ser":735,"ĠÃ©ta":736,"Ġk":737,"Ġsui":738,"background":739,"Ġsa":740,"par":741,"'',":742,"Ġ18":743,"min":744,"Ġw":745,"int":746,"ĠPar":747,"En":748,"cou":749,"Ġcomme":750,"tat":751,"Ã©an":752,"ern":753,"gne":754,"Ġclass":755,"bum":756,"po":757,"Ġti":758,"ell":759,"Ġtr":760,"ĠfondÃ©":761,"Ã´":762,"alement":763,"uit":764,"Ġcap":765,";\"":766,"Ġser":767,"Ġsous":768,"ang":769,"ments":770,"mps":771,"span":772,"Ġdiff":773,"La":774,"Ġat":775,"cc":776,"Domaine":777,"Ġy":778,"uni":779,"ith":780,"ud":781,"itesse":782,"eur":783,"ouv":784,"oy":785,"ens":786,"Ġmar":787,"prÃ¨s":788,"org":789,"..":790,"201":791,"text":792,"ron":793,"Ġ[":794,"Ġper":795,"puis":796,"ĠQuelle":797,"60":798,"ĠFran":799,"vision":800,"Ġ9":801,"18":802,"ĠrÃ©servÃ©":803,"aison":804,"fin":805,"gor":806,"Ã©d":807,"teur":808,"25":809,"Ġinternet":810,"Ã¤":811,"des":812,"Ġav":813,"15":814,"70":815,"Ã®":816,"ĠLes":817,"Ġjou":818,"Ġcette":819,"Ġad":820,"lie":821,"rÃ©e":822,"ĠIn":823,"dom":824,"erg":825,"|}":826,"Ġentre":827,"annÃ©e":828,"ov":829,"ante":830,"oire":831,"llem":832,"35":833,"{|":834,"ents":835,"Ġ16":836,"lic":837,"LD":838,"eb":839,"ĠĠĠĠĠĠĠĠĠĠĠ":840,"px":841,"11":842,"Code":843,"sv":844,"Ġph":845,"Ġpla":846,"Ġtrois":847,"agne":848,"cu":849,"liga":850,"fr":851,"Ġvitesse":852,"roupe":853,"oppdom":854,"Ã¤n":855,"oppdomÃ¤n":856,"yn":857,"Ġsp":858,"24":859,"ds":860,"icie":861,"rec":862,"Ġ%":863,"Ġfait":864,"vers":865,"ins":866,"Ġrac":867,"for":868,"Ġli":869,"ili":870,"Ġoc":871,"ise":872,"alle":873,"CC":874,"TLD":875,"Ġapp":876,"Ġdomaines":877,"uer":878,"illi":879,"ĠrÃ©g":880,"quipe":881,"ToppdomÃ¤n":882,"ble":883,"99":884,"In":885,"Ġmonde":886,"Ġfaire":887,"=\"#":888,"Ãªme":889,"EF":890,"aine":891,"ĠU":892,"Ġ198":893,"eau":894,"Ġcode":895,"ĠÃ©c":896,"aint":897,"Ã©rie":898,"Ġnombre":899,"tra":900,"ata":901,"ĠgÃ©n":902,"av":903,"ĠĠčĊ":904,"Ġfran":905,"row":906,"endant":907,"Ġbar":908,"ĠÃ©g":909,"mique":910,"ĠDe":911,"artou":912,"ire":913,"Ã»":914,"ex":915,"mis":916,"Ġmat":917,"ĠÃī":918,"lÃ¨":919,"umi":920,"Ġont":921,"if":922,"anci":923,"ak":924,"gorith":925,"onc":926,"erci":927,"isse":928,"|'''":929,"Ã¢":930,"Ġcour":931,"umiÃ¨re":932,"Ãł":933,"Ġter":934,"ind":935,"Ġtra":936,"Ãī":937,"Ġim":938,"Ġses":939,"''')":940,"23":941,"]]":942,"ĠlumiÃ¨re":943,"tel":944,"itable":945,"Ġtou":946,"ĠcrÃ©":947,"arm":948,"Ġty":949,"idth":950,"tor":951,"Ġmuni":952,"Ġtop":953,"ourn":954,"ussi":955,"FFFF":956,"https":957,"ccTLD":958,"form":959,"ug":960,"Ġcou":961,"wik":962,"'''||":963,"elles":964,"ĠAn":965,"Ġgrand":966,"Com":967,"enn":968,"wikitable":969,"ite":970,"Ġdepuis":971,"ati":972,"bles":973,"oh":974,"erie":975,"Ġsaison":976,"ĠÃª":977,"ĠĠĠĠĠĠĠĠĠĠĠĠĠ":978,"use":979,"ication":980,"vign":981,"Ġes":982,"Ġlors":983,"ĠMar":984,"Ġjeu":985,"try":986,"ĠÃªtre":987,"vignette":988,"Ġ100":989,"Ġenregist":990,"aines":991,"45":992,"pos":993,"insi":994,"ande":995,"Ġcartou":996,"ales":997,"aut":998,"sid":999,"mun":1000,"Ġnou":1001,"alis":1002,"rier":1003,"ampion":1004,"ĠÃ©galement":1005,"21":1006,"ntry":1007,"oci":1008,"Ġpeut":1009,"imp":1010,"mbre":1011,"Ġcontin":1012,"son":1013,"onne":1014,"ĠannÃ©es":1015,"ĠâĢ":1016,"sent":1017,"orti":1018,"Ġlevel":1019,"Ã§ais":1020,"country":1021,"ck":1022,"ole":1023,"Ġ!":1024,"Ġfor":1025,"ĠAl":1026,"Ġgroupe":1027,"vent":1028,"aires":1029,"ĠY":1030,"ĠmÃ©":1031,"Ġleur":1032,"ĠPremi":1033,"Ġnoms":1034,"oot":1035,"ze":1036,"Ġdev":1037,"lement":1038,"tement":1039,"tionn":1040,"ĠÃ©tait":1041,"ient":1042,"oud":1043,"attern":1044,"ĠannÃ©e":1045,"Al":1046,"cl":1047,"Ġpers":1048,"ilm":1049,"ĠdÃ©b":1050,"lo":1051,"ains":1052,"ĠFC":1053,"Ġtemps":1054,"asse":1055,"Ġpuis":1056,"ĠmÃªme":1057,"ĠRe":1058,"one":1059,"ok":1060,"ruc":1061,"Ġpub":1062,"Ġno":1063,"tÃ©s":1064,"100":1065,"nb":1066,"Ã©ro":1067,"Ġcolor":1068,"Ġphot":1069,"Ġdit":1070,"talie":1071,"Ġjus":1072,"Ġsite":1073,"''.":1074,"omb":1075,"ĠSud":1076,"viron":1077,"Ġoff":1078,"Ġres":1079,"oids":1080,"per":1081,"Ġ8":1082,"Ġaussi":1083,"uro":1084,"Ġtout":1085,"enne":1086,"Ã¨res":1087,"Ġju":1088,"ages":1089,"Ġtype":1090,"38":1091,"ĠAmÃ©":1092,"ĠpremiÃ¨re":1093,"14":1094,"17":1095,"Ġme":1096,"Ġquel":1097,"Ġrec":1098,"ĠdiffÃ©r":1099,"ĠaprÃ¨s":1100,"Ġbien":1101,"Ġver":1102,"ture":1103,"Ã©ral":1104,"nbsp":1105,"90":1106,"ves":1107,"Ġlui":1108,"Ġcons":1109,"Ġcapit":1110,"Italie":1111,"Ġlong":1112,"anc":1113,"Ġcor":1114,"els":1115,"cip":1116,"thod":1117,"ĠÃ©crit":1118,"Ġ;":1119,"undes":1120,"Ġrep":1121,"Ġcommence":1122,"ĠFrance":1123,"ĠAmÃ©rique":1124,"undesliga":1125,"16":1126,"emp":1127,"ris":1128,"ondi":1129,"Ġnum":1130,"Ġdivision":1131,"Ġdern":1132,"ĠrÃ©s":1133,"Ġremp":1134,"nom":1135,"pagn":1136,"|---":1137,"ĠNord":1138,"Ġkm":1139,"Ġsy":1140,"Ġmes":1141,"Ġ17":1142,"ature":1143,"Ġfr":1144,"Ġmach":1145,"tats":1146,"ĠfranÃ§ais":1147,"Ġsuc":1148,"Ġsorti":1149,"ĠamÃ©":1150,"cess":1151,"llemagne":1152,"Ġracine":1153,"fant":1154,"Ġpattern":1155,"orte":1156,"ils":1157,"ace":1158,"ry":1159,"ense":1160,"Ġces":1161,"Ġass":1162,"Ġbout":1163,"lin":1164,"Ġils":1165,"Ġrest":1166,"Ġsign":1167,"ball":1168,"tic":1169,"lique":1170,"cep":1171,"ĠdÃ©p":1172,"thÃ¨":1173,"ĠdeuxiÃ¨me":1174,"Ġdisp":1175,"Ġphotos":1176,"met":1177,"Ġcho":1178,"ĠJe":1179,"bres":1180,"ip":1181,"Ã©lÃ©":1182,"olu":1183,"ici":1184,"tant":1185,"Åĵ":1186,"Ġsecond":1187,"der":1188,"mar":1189,"to":1190,"tes":1191,"ana":1192,"Ġainsi":1193,"ĠAr":1194,"umb":1195,"ligence":1196,"jours":1197,"gorithmique":1198,"Ã¨tres":1199,"algorithmique":1200,"ĠMis":1201,"Ġposs":1202,"telligence":1203,"Ġcapitale":1204,"iques":1205,"intelligence":1206,"nement":1207,"Ġtoujours":1208,"Ġ+":1209,"Ġelle":1210,"tiques":1211,"entra":1212,"000":1213,"ĠdÃ©vel":1214,"ĠComment":1215,"Ã©rables":1216,"ergie":1217,"ynthÃ¨":1218,"ynthÃ¨se":1219,"iment":1220,"Ã©ri":1221,"Ġsoit":1222,"ures":1223,"ĠPeux":1224,"Ġchampion":1225,"colat":1226,"Ġweb":1227,"Ġchocolat":1228,"ĠMisÃ©rables":1229,"Ġord":1230,"onjour":1231,"Ġcert":1232,"ĠTe":1233,"Ġcontinents":1234,"ach":1235,"ĠUn":1236,"Ã©c":1237,"ines":1238,"ĠĠĠĠĠĠĠ":1239,"ible":1240,"ĠcarrÃ©e":1241,"ĠocÃ©an":1242,"uerre":1243,"EFEF":1244,"munication":1245,"ĠphotosynthÃ¨se":1246,"Ġ11":1247,"Ġ(''":1248,"ĠCe":1249,"ock":1250,"Ġarri":1251,"Ġpartie":1252,"oudre":1253,"ten":1254,"Ġor":1255,"Ġfois":1256,"Ġdirec":1257,"Ġminist":1258,"ase":1259,"ia":1260,"ps":1261,"tar":1262,"Ġ&":1263,"Ã©v":1264,"antes":1265,"ches":1266,"Ġregist":1267,"style":1268,"Ġtrans":1269,"rowspan":1270,"ancien":1271,"ĠPremier":1272,"urope":1273,"Il":1274,"lec":1275,"ĠPour":1276,"ĠBundesliga":1277,"Ġ196":1278,"Ġsem":1279,"order":1280,"ohn":1281,"ĠamÃ©ric":1282,"Ġpres":1283,"Ġmo":1284,"Ġmilli":1285,"ĠCol":1286,"Ġexp":1287,"Ġcolspan":1288,"Ġcal":1289,"Ġchar":1290,"199":1291,"ĠprÃ©c":1292,"ĠdÃ©but":1293,"Ġversion":1294,"rer":1295,"tile":1296,"htm":1297,"uite":1298,"ĠprÃ©sent":1299,"Ġnouveau":1300,"net":1301,"Ã¯":1302,"ĠZ":1303,"tive":1304,"Ġjour":1305,"Ġalors":1306,"ootball":1307,"32":1308,"duit":1309,"Ã©quipe":1310,"iter":1311,"Ã¨tre":1312,"ĠSaint":1313,"âĢ¦":1314,"Ġconc":1315,"alitÃ©":1316,"Communication":1317,"Ġpersonn":1318,"IC":1319,"top":1320,"enti":1321,"Ġseu":1322,"Ġ12":1323,"ieu":1324,"icielle":1325,"Internet":1326,"ints":1327,"itÃ©s":1328,"ĠtÃ©lÃ©":1329,"ffff":1330,"idÃ©":1331,"Ġactu":1332,"ies":1333,"nat":1334,"Ã©p":1335,"rib":1336,"ef":1337,"ox":1338,"vie":1339,"rement":1340,"Ġballe":1341,"Ġ197":1342,"Ġob":1343,"Ġcontre":1344,"fanterie":1345,"ath":1346,"Ġfut":1347,"ants":1348,"Ġbata":1349,"ĠMa":1350,"Ġwidth":1351,"Ġplace":1352,"ĠtroisiÃ¨me":1353,"nic":1354,"anis":1355,"ade":1356,"du":1357,"jec":1358,"mb":1359,"rie":1360,"Ġren":1361,"own":1362,"mission":1363,"Album":1364,"Ġjusqu":1365,"Ġavant":1366,"ome":1367,"Ġform":1368,"Ġret":1369,"ĠJohn":1370,"Ġprin":1371,"man":1372,"poids":1373,"Ã¹":1374,"till":1375,"Ġcha":1376,"Ġeff":1377,"ĠâĢĵ":1378,"ute":1379,"Ġtext":1380,"Ġsuite":1381,"13":1382,"ei":1383,"Ġcell":1384,"Ġfootball":1385,"Ġ(.":1386,"endre":1387,"Ġpartir":1388,"Ġsyst":1389,"92":1390,"aci":1391,"iÃ¨re":1392,"tro":1393,"ork":1394,"omo":1395,"ocu":1396,"Åĵu":1397,"030":1398,"Ã¼":1399,"Ġro":1400,"Ġdont":1401,"rip":1402,"Ġautres":1403,"ĠParis":1404,"Ġcartouche":1405,"Ġpe":1406,"Ġtous":1407,"ĠrÃ©p":1408,"aient":1409,"ĠoÃ¹":1410,"Ġseconde":1411,"Ġfrom":1412,"Ch":1413,"be":1414,"mment":1415,"nergie":1416,"Ġve":1417,"entes":1418,"Ġman":1419,"ĠvidÃ©":1420,"ick":1421,"Ġpoli":1422,"az":1423,"sie":1424,"val":1425,"Ġon":1426,"Ġdate":1427,"urÃ©e":1428,"Ġconst":1429,"ĠĠĠĠĠĠĠĠĠĠĠĠĠĠ":1430,"Ġgrande":1431,"Ġsignif":1432,"Ġcalend":1433,"so":1434,"Ġz":1435,"Ġimp":1436,"Ġsans":1437,"ente":1438,"ĠEurope":1439,"Ġprob":1440,"vre":1441,"Ã©tu":1442,"titu":1443,"ari":1444,"ĠdÃ©c":1445,"48":1446,"Ar":1447,"ton":1448,"Ã©ta":1449,"Ġloc":1450,"ilom":1451,"ĠdÃ©ci":1452,"ĠElle":1453,"26":1454,"AN":1455,"ven":1456,"Ġtill":1457,"Ġliste":1458,"Ġmot":1459,"Ġva":1460,"Ġchi":1461,"acitÃ©":1462,"vient":1463,"Ġkilom":1464,"rain":1465,"uÃ©":1466,"enregist":1467,"Ġtrou":1468,"Ġsuivant":1469,"Ġtitre":1470,"Ã®ne":1471,"Ġmunition":1472,"ld":1473,"rent":1474,"sc":1475,"ĠlÃ©g":1476,"inÃ©":1477,"ises":1478,"quel":1479,"tudi":1480,"Ġlongue":1481,"27":1482,"ix":1483,"oÃ»":1484,"infanterie":1485,"amb":1486,"illet":1487,"197":1488,"core":1489,"poste":1490,"Ġregistre":1491,"html":1492,"Ġmont":1493,"ola":1494,"0000":1495,"Ġpermet":1496,"ma":1497,"ĠÂ».":1498,"ĠOn":1499,"Ġalbum":1500,"Unis":1501,"Ġmatch":1502,"'''||'''":1503,"43":1504,"ues":1505,"Ã©rique":1506,"iss":1507,"ouver":1508,"ieurs":1509,"taille":1510,"amÃ¨tre":1511,"vice":1512,"thumb":1513,"app":1514,"Ġacc":1515,"ouvelle":1516,"ĠÃītats":1517,"are":1518,"jet":1519,"ension":1520,"ourg":1521,"ĠDi":1522,"Ġ''''''":1523,"ĠEx":1524,"ĠutilisÃ©":1525,"ement":1526,"ign":1527,"ide":1528,"sh":1529,"lier":1530,"elon":1531,"cher":1532,"Ġquat":1533,"Ġgr":1534,"Ġexemp":1535,"organis":1536,"|-----":1537,"ĠkilomÃ¨tres":1538,"54":1539,"avi":1540,"bl":1541,"cont":1542,"Ġan":1543,"environ":1544,"Ġnon":1545,"ĠAf":1546,"act":1547,"ards":1548,"%\"":1549,"29":1550,"fs":1551,"land":1552,"mer":1553,"Ġans":1554,"Ġtour":1555,"198":1556,"Ġ2006":1557,"De":1558,"Jeu":1559,"Ġrowspan":1560,"Ġdou":1561,"Ã©rÃ©":1562,"'')":1563,"Ġcan":1564,"Ġfaut":1565,"Ġtomb":1566,"ĠCou":1567,"Ġjoueur":1568,"ĠrÃ©giment":1569,"Ġpression":1570,"Ġcalendrier":1571,"Pour":1572,"fique":1573,"pes":1574,"pendant":1575,"ĠTU":1576,"}}.":1577,"Ġhum":1578,"Ġcommune":1579,"Ġfinale":1580,"ĠcapacitÃ©":1581,"Ġmath":1582,"ĠvidÃ©o":1583,"56":1584,"66":1585,"duc":1586,"uk":1587,"Ġ_":1588,"ison":1589,"Ġallem":1590,"''',":1591,"ĠBer":1592,"ames":1593,"Ġ1997":1594,"Ġcompar":1595,"39":1596,"bo":1597,"nes":1598,"ril":1599,"uel":1600,"va":1601,"Ġdest":1602,"Ã©tÃ©":1603,"Ġdem":1604,"Ġmod":1605,"atta":1606,"ĠĠĠĠĠĠĠĠĠĠ":1607,"Ġbas":1608,"Ġ22":1609,"ĠdÃ©fin":1610,"oppe":1611,"ĠĠĠĠĠĠĠĠĠĠĠĠĠĠĠ":1612,"ocument":1613,"33":1614,"ame":1615,"gue":1616,"Ġdonn":1617,"Ġsou":1618,"Ġcel":1619,"Ġcali":1620,"urent":1621,"ĠSer":1622,"ĠTur":1623,"Ġsep":1624,"Ġ30":1625,"||'''":1626,"Ġsupp":1627,"Ġsport":1628,"44":1629,"lÃ©g":1630,"mo":1631,"Ã¶":1632,"ĠĠĠĠĠ":1633,"arine":1634,"Ġmondi":1635,"Ġfer":1636,"Ġprop":1637,"Ġof":1638,"Ġjoue":1639,"lÃ¨mes":1640,"ĠsystÃ¨me":1641,"Ġpeti":1642,"ĠproblÃ¨mes":1643,"37":1644,"ng":1645,"Ġdist":1646,"Ã©ci":1647,"enant":1648,"Ġleurs":1649,"ress":1650,"ĠBe":1651,"ĠBien":1652,"ĠTh":1653,"ĠTrÃ©s":1654,"ots":1655,"ĠJeux":1656,"ords":1657,"Ġprincip":1658,"ĠTrÃ©sor":1659,"work":1660,"Ġ14":1661,"raph":1662,"chn":1663,"asc":1664,"oÃ»t":1665,"34":1666,"io":1667,"up":1668,"Ġpist":1669,"quoi":1670,"Ġlequel":1671,"Ġ15":1672,"Ġbut":1673,"ĠÃ©nergie":1674,"Ġintern":1675,"Ġdiffus":1676,"FFFFFF":1677,"Ġsignifie":1678,"ition":1679,"lau":1680,"mÃ©e":1681,"Ġ\"":1682,"omme":1683,"Ġleft":1684,"ĠCel":1685,"Ġgouver":1686,"ĠDown":1687,"Ġcomment":1688,"Ġplusieurs":1689,"ogo":1690,"ĠtrÃ¨s":1691,"Ġligne":1692,"Ġsemaines":1693,"ah":1694,"ber":1695,"iti":1696,"moi":1697,"width":1698,"teau":1699,"old":1700,"site":1701,"ĠVic":1702,"Ġtemp":1703,"Ġpoints":1704,"Ã©ration":1705,"fois":1706,"Ġdonc":1707,"Ġpass":1708,"Ġthe":1709,"ĠĠĠĠĠĠĠĠĠ":1710,"size":1711,"ĠEt":1712,"ĠQue":1713,"Ãªte":1714,"ĠOc":1715,"armÃ©e":1716,"Ġmunitions":1717,"thodox":1718,"ĠdÃ©veloppe":1719,"36":1720,"Allemagne":1721,"ler":1722,"vin":1723,"ane":1724,"ram":1725,"Ġ''''":1726,"treet":1727,"oirs":1728,"Ġmachine":1729,"Ġchampionnat":1730,"Ġministre":1731,"28":1732,"ger":1733,"ls":1734,"ĠÅĵu":1735,"Ġfilm":1736,"ultÃ©":1737,"Ġ2007":1738,"ĠdiffÃ©rentes":1739,"Ġcalibre":1740,"ĠDowning":1741,"Ou":1742,"af":1743,"jo":1744,"=\"\"":1745,"minist":1746,"Ġservice":1747,"CCCC":1748,"issement":1749,"cessus":1750,"mos":1751,"oli":1752,"Ġdoit":1753,"Ġpouv":1754,"orts":1755,"Ġmili":1756,"Ġ13":1757,"Ġnorm":1758,"sition":1759,"ĠRome":1760,"ĠHug":1761,"Ġconn":1762,"Ġprocessus":1763,"ĠgÃ©nÃ©ral":1764,"Ġespagn":1765,"ception":1766,"ĠExp":1767,"ĠVictor":1768,"180":1769,"=|":1770,"aille":1771,"dÃ©":1772,"iÃ©":1773,"Ġpri":1774,"ĠsÃ»":1775,"ĠĠĠĠĠĠ":1776,"Ã¨ge":1777,"autres":1778,"ustra":1779,"ĠSa":1780,"ĠSh":1781,"ĠMe":1782,"Ġvers":1783,"onter":1784,"vier":1785,"ordre":1786,"ĠQuel":1787,"Ġavoir":1788,"Ġreste":1789,"ĠnumÃ©ro":1790,"ĠarriÃ¨re":1791,"Ġactuelle":1792,"enregistrement":1793,"ĠAfrique":1794,"Est":1795,"II":1796,"ctique":1797,"ext":1798,"ka":1799,"lat":1800,"rond":1801,"§a":1802,"Ġrou":1803,"Ġsoci":1804,"ĠÃ§a":1805,"Ġ21":1806,"ĠMagn":1807,"Ġvoi":1808,"ĠAsie":1809,"tamment":1810,"]]|":1811,"ĠTemps":1812,"iers":1813,"ke":1814,"Ġpendant":1815,"Ġsin":1816,"ĠÃĢ":1817,"Ġborder":1818,"ĠStreet":1819,"Ġconf":1820,"Ġpeuvent":1821,"ĠspÃ©ci":1822,"ercice":1823,"ĠOcÃ©an":1824,"ĠsÃ»r":1825,"DA":1826,"jor":1827,"Ġri":1828,"Ã©di":1829,"onge":1830,"Ġci":1831,"ommes":1832,"quante":1833,"Ġfus":1834,"Ġfich":1835,"olo":1836,"Ġbl":1837,"Ġbla":1838,"Ġinter":1839,"Ġ1996":1840,"ows":1841,"ĠmÃ©thod":1842,"Ġpubli":1843,"Ġtransfor":1844,"Ã©tude":1845,"Ġgouvernement":1846,"ĠtempÃ©r":1847,"Ġespagnol":1848,"ĠmÃ©thodes":1849,"'.":1850,"04":1851,"DD":1852,"eg":1853,"ges":1854,"port":1855,"Ġdocument":1856,"Ġlord":1857,"Ġsites":1858,"ars":1859,"aul":1860,"Ġbate":1861,"uss":1862,"ĠMich":1863,"Ġautre":1864,"pec":1865,"ĠWal":1866,"ĠComb":1867,"rÃ©sent":1868,"ova":1869,"Ã¢teau":1870,"Ġcartouches":1871,"Ġordres":1872,"tarctique":1873,"Ġmondiale":1874,"ĠMagnum":1875,"Ã©ti":1876,"ertif":1877,"Ġmem":1878,"Ġfont":1879,"Ġtoi":1880,"ĠPaci":1881,"Ġintro":1882,"Ġje":1883,"Ġstand":1884,"Ġexercice":1885,"Ġtechn":1886,"tificielle":1887,"Ġartificielle":1888,"Ġdisque":1889,"rictions":1890,"ĠĠĠĠĠĠĠĠĠĠĠĠĠĠĠĠĠ":1891,"Ġmeille":1892,"ĠrÃ©soudre":1893,"olution":1894,"Ġveux":1895,"Ġhumaine":1896,"ĠOcÃ©anie":1897,"ĠtempÃ©rature":1898,"03":1899,"bat":1900,"ile":1901,"vol":1902,"Ġdro":1903,"anvier":1904,"ĠsÃ©rie":1905,"Ġnation":1906,"Ġfonc":1907,"Ã¨ne":1908,"chi":1909,"ĠGu":1910,"ocÃ©an":1911,"ĠÂ»,":1912,"ritann":1913,"Ã´t":1914,"Ġexemple":1915,"Ġbateau":1916,"ĠPacifique":1917,"06":1918,"500":1919,"aÃ¯":1920,"rat":1921,"vure":1922,"estion":1923,"Ġlieu":1924,"tives":1925,"Ġaff":1926,"Ġencore":1927,"Ã¨de":1928,"Ġvalign":1929,"aider":1930,"Ġplong":1931,"ĠdiamÃ¨tre":1932,"Ġprof":1933,"Ġstruc":1934,"ĠQui":1935,"Ġalgorith":1936,"Ġatmos":1937,"Ġraconter":1938,"ĠrÃ©gion":1939,"ĠUne":1940,"ataille":1941,"ĠAntarctique":1942,"Ġpublic":1943,"Ġmachines":1944,"ĠfranÃ§aise":1945,"Ġchaque":1946,"Ġsinon":1947,"Ġalgorithmes":1948,"Ġatmosph":1949,"NE":1950,"].":1951,"fÃ©r":1952,"enc":1953,"Ġdeg":1954,"Ġselon":1955,"Ġcent":1956,"Ġcas":1957,"illes":1958,"ĠCette":1959,"usic":1960,"Ġ26":1961,"Ġ299":1962,"ĠAllemagne":1963,"ĠgÃ¢teau":1964,"laire":1965,"ĠGuerre":1966,"Ġnombres":1967,"ada":1968,"illot":1969,"Ġmaillot":1970,"ĠgÃ©nÃ©ra":1971,"Ġdevoirs":1972,"Ġnotamment":1973,"Ġjuin":1974,"Ġsucre":1975,"Ã©vrier":1976,"ĠPourquoi":1977,"ĠprÃ©cÃ©d":1978,"Ġmaths":1979,"Ġpistole":1980,"ĠHugo":1981,"300":1982,"46":1983,"57":1984,"bine":1985,"bonjour":1986,"bourg":1987,"hola":1988,"suite":1989,"Ġlevure":1990,"Ġfarine":1991,"rig":1992,"Ġbeur":1993,"Ġvais":1994,"Ġcompr":1995,"Ġ34":1996,"Ġparticu":1997,"Ġ792":1998,"Ġavait":1999,"Ġgrandeur":2000,"Ġchimique":2001,"Ġtombent":2002,"Ġcomparer":2003,"thodoxe":2004,"ĠÅĵufs":2005,"Ġnormale":2006,"ĠdegrÃ©s":2007,"Ġbeurre":2008,"55":2009,"dam":2010,"Ġ)":2011,"tier":2012,"Ġafin":2013,"let":2014,"urop":2015,"Ġmerci":2016,"album":2017,"Ġth":2018,"ĠCar":2019,"sius":2020,"ĠBonjour":2021,"Ġplantes":2022,"Ġplonge":2023,"Ġ1990":2024,"tifs":2025,"124":2026,"ĠParce":2027,"Ġatte":2028,"licy":2029,"indows":2030,"Ġimiter":2031,"Ġ!!":2032,"Ġrempla":2033,"Ġsortie":2034,"Ġdispute":2035,"EFEFEF":2036,"Ġmoins":2037,"ĠCelsius":2038,"ĠExplique":2039,"Ġblague":2040,"Ġtransforment":2041,"ĠCombien":2042,"Ġplongent":2043,"ĠatmosphÃ©rique":2044,"Ġplongeurs":2045,"41":2046,"Cette":2047,"Film":2048,"aff":2049,"pse":2050,"vÃ©e":2051,"yant":2052,"|[":2053,"Ġsit":2054,"Ġsau":2055,"att":2056,"Ġenviron":2057,"aume":2058,"Ġtourn":2059,"ĠSt":2060,"ĠBond":2061,"ĠInternet":2062,"ticle":2063,"ĠCoupe":2064,"gen":2065,"pad":2066,"sance":2067,"Ġ000":2068,"ene":2069,"anie":2070,"urant":2071,"ĠnÃ©":2072,"Ġfurent":2073,"Ġbase":2074,"ĠdÃ©f":2075,"ĠdÃ©rou":2076,"ĠrÃ©alis":2077,"ications":2078,"ĠGÃ©n":2079,"Ġprog":2080,"Ġ2000":2081,"Ġrapp":2082,"Ġ1995":2083,"ĠDemi":2084,"lÃ¨te":2085,"Ġcorps":2086,"IS":2087,"|+":2088,"Â«":2089,"Ġop":2090,"Ġorganis":2091,"ances":2092,"resse":2093,"ices":2094,"the":2095,"ĠWindows":2096,"357":2097,"ĠderniÃ¨re":2098,"Ġrestrictions":2099,"ĠamÃ©ricain":2100,"Ġquatre":2101,"lautern":2102,"Ouest":2103,"64":2104,"Di":2105,"ca":2106,"oss":2107,"ÃĢ":2108,"Ġpop":2109,"ange":2110,"tient":2111,"oute":2112,"ouse":2113,"uses":2114,"ĠÃ©qui":2115,"ĠÃ©quipe":2116,"Ġville":2117,"lapse":2118,"ict":2119,"aisers":2120,"ĠRob":2121,"Ġinf":2122,"Ġinsc":2123,"ĠEl":2124,"endo":2125,"Ġ38":2126,"Ġ1991":2127,"Ġmaison":2128,"Ġperform":2129,"Ġstructure":2130,"aiserslautern":2131,"Ce":2132,"cÃ¨s":2133,"mon":2134,"Ġpiste":2135,"tembre":2136,"Ġmois":2137,"its":2138,"aints":2139,"ĠLR":2140,"Ġ25":2141,"Ġvie":2142,"Ãªtre":2143,"intendo":2144,"issex":2145,"ĠcrÃ©ation":2146,"ennent":2147,"ĠenregistrÃ©":2148,"ĠdÃ©cim":2149,"rondissement":2150,"ore":2151,"vo":2152,"oll":2153,"ĠLok":2154,"Ġbissex":2155,"Ġ24":2156,"ĠBr":2157,"Ġdix":2158,"Ġ2004":2159,"Ġcommerci":2160,"ograph":2161,"policy":2162,"Ġimage":2163,"Ġmillions":2164,"board":2165,"AA":2166,"rÃ¨s":2167,"tent":2168,"ule":2169,"ĠX":2170,"Ġang":2171,"Ã©mission":2172,"Ġmul":2173,"Ġensuite":2174,"ĠSte":2175,"ĠSch":2176,"resp":2177,"ĠrÃ©sid":2178,"Ġrepr":2179,"Ġjanvier":2180,"acing":2181,"ider":2182,"Ġrap":2183,"ĠprÃ©f":2184,"ĠChar":2185,"Uni":2186,"Ġutilisation":2187,"lÃ©ment":2188,"Ġappel":2189,"ennes":2190,"Ġdernier":2191,"Ġpossible":2192,"ĠBerlin":2193,"ĠdestinÃ©":2194,"ĠTurbine":2195,"Au":2196,"NS":2197,"ires":2198,"Ġand":2199,"Ġab":2200,"Ġayant":2201,"orig":2202,"Ġnouvelle":2203,"olog":2204,"ration":2205,"istoire":2206,"ĠMondi":2207,"Ġaut":2208,"Ġautor":2209,"ĠDans":2210,"ĠDavi":2211,"Ġchasse":2212,"ĠprÃ©sid":2213,"illiam":2214,"Ġtoute":2215,"Ġjuillet":2216,"Ġquelques":2217,"ĠreprÃ©sent":2218,"Ġcertains":2219,"Ġdirectement":2220,"Ġpolitique":2221,"94":2222,"FC":2223,"IR":2224,"domain":2225,"ez":2226,"gin":2227,"mm":2228,"mine":2229,"Ġ#":2230,"Ġpts":2231,"Ġsc":2232,"ĠsÃ©":2233,"url":2234,"Ġface":2235,"Ġbritann":2236,"ĠSy":2237,"ĠMan":2238,"ĠAprÃ¨s":2239,"peci":2240,"tÃ©rie":2241,"Ġchem":2242,"ĠGe":2243,"Ġhab":2244,"spacing":2245,"Ġsuiv":2246,"ilitÃ©":2247,"exp":2248,"Ġcoule":2249,"entraÃ®ne":2250,"Ġcellspacing":2251,"ĠMondiaux":2252,"05":2253,"42":2254,"51":2255,"62":2256,"ed":2257,"font":2258,"mble":2259,"Ġent":2260,"Ġid":2261,"Ġpi":2262,"Ġsta":2263,"Ġsub":2264,"lex":2265,"Ġmis":2266,"Ġfa":2267,"ĠCor":2268,"vembre":2269,"chÃ©":2270,"ĠSec":2271,"ĠDis":2272,"Ġ1080":2273,"Union":2274,"Ġ2011":2275,"ĠComp":2276,"Ġ[[":2277,"Ġentrepr":2278,"Ġnouvel":2279,"Ġbissextile":2280,"respond":2281,"Ġcin":2282,"Ġcentre":2283,"oul":2284,"ald":2285,"alles":2286,"rame":2287,"istor":2288,"ĠÃ©p":2289,"Ġvis":2290,"ĠrÃ©se":2291,"Ġjourn":2292,"1080":2293,"Ġ2001":2294,"artin":2295,"ĠÃ©taient":2296,"poque":2297,"Ġavril":2298,"Ġadminist":2299,"cup":2300,"tobre":2301,"entrale":2302,"Ġeffec":2303,"Ġcelui":2304,"extension":2305,"latin":2306,"Ġintroduit":2307,"Ġstandard":2308,"Ġdisputepolicy":2309,"pecial":2310,"RÃ©":2311,"off":2312,"Ġ01":2313,"enis":2314,"Ġdevient":2315,"orta":2316,"Ġmm":2317,"Ã¨le":2318,"char":2319,"ĠMc":2320,"ĠAu":2321,"Ġgar":2322,"lais":2323,"ĠRoy":2324,"Ġiniti":2325,"Ġpremiers":2326,"ĠNintendo":2327,"ulation":2328,"Ġ2005":2329,"vert":2330,"Ġcommand":2331,"Ġ50":2332,"''''''":2333,"coup":2334,"Ġclassement":2335,"iciel":2336,"Ġcourse":2337,"ĠdÃ©velopp":2338,"eight":2339,"Ġcellpad":2340,"tudio":2341,"ĠgÃ©nÃ©ralement":2342,"ramework":2343,"58":2344,"ael":2345,"Ġ}}.":2346,"Ã©b":2347,"Ã©cu":2348,"enu":2349,"inter":2350,"ĠfÃ©vrier":2351,"vement":2352,"Ġvict":2353,"Ġguerre":2354,"ĠThe":2355,"Ġindi":2356,"Ã¨rement":2357,"apon":2358,"Ġtir":2359,"Ġdispon":2360,"Ġbataill":2361,"Ġinternational":2362,"47":2363,"bgcolor":2364,"lande":2365,"ru":2366,"Ġ/":2367,"enre":2368,"ences":2369,"Ġpal":2370,"Ġpos":2371,"Ġcli":2372,"Ġaider":2373,"ours":2374,"cembre":2375,"Ġpart":2376,"ĠÃ©di":2377,"tÃ©ris":2378,"Ġincl":2379,"Ġjeux":2380,"Ġchans":2381,"ĠJo":2382,"ĠJack":2383,"Ġ2008":2384,"Ġ1993":2385,"ongue":2386,"Ġ2020":2387,"Ġsup":2388,"Ã´le":2389,"formation":2390,"perf":2391,"NET":2392,"91":2393,"96":2394,"An":2395,"],":2396,"adi":2397,"ding":2398,"km":2399,"ony":2400,"erc":2401,"erne":2402,"ret":2403,"orce":2404,"orter":2405,"Ġparrain":2406,"Ġauc":2407,"ĠÃ©tat":2408,"ĠÃ©tant":2409,"otal":2410,"ellement":2411,"Ġemp":2412,"Ġ40":2413,"Ġ2003":2414,"ĠVer":2415,"ĠKip":2416,"igue":2417,"Ġcorrespond":2418,"Ġcharge":2419,"Ġallemand":2420,"ĠDavid":2421,"101":2422,"65":2423,"Mar":2424,"aw":2425,"jp":2426,"uli":2427,"à¸":2428,"Ġu":2429,"Ġdom":2430,"ess":2431,"Ġlet":2432,"Ġlim":2433,"anada":2434,"atri":2435,"Ġenti":2436,"iles":2437,"rop":2438,"ĠSpecial":2439,"oth":2440,"utes":2441,"Ġheight":2442,"comp":2443,"Ġsix":2444,"Ġcours":2445,"ĠâĢĶ":2446,"Ġforme":2447,"Ġretrou":2448,"Bataille":2449,"SC":2450,"mage":2451,"yl":2452,"Â°":2453,"Âł":2454,"Ã¡":2455,"teurs":2456,"quer":2457,"istes":2458,"annÃ©es":2459,"||||":2460,"Ġraison":2461,"Ġexiste":2462,"Ġsimp":2463,"Ġcompos":2464,"ffffff":2465,"Ġlocomo":2466,"attaquante":2467,"ĠGÃ©nÃ©ral":2468,"Ġmulti":2469,".''":2470,"NIC":2471,"avant":2472,"bel":2473,"fie":2474,"lant":2475,"my":2476,"×ª":2477,"×ķ":2478,"×Ļ":2479,"ĠaoÃ»t":2480,"Ġmet":2481,"Ġmaint":2482,"atles":2483,"Ġnature":2484,"ĠBar":2485,"ĠBel":2486,"Ġgenre":2487,"ĠTer":2488,"neuse":2489,"actÃ©ris":2490,"Ġprojec":2491,"pose":2492,"Ġofficielle":2493,"Ġtoutes":2494,"ĠdiffÃ©rents":2495,"efef":2496,"riptions":2497,"Ġjoueurs":2498,"ĠdÃ©veloppement":2499,"ĠsociÃ©tÃ©":2500,"entraÃ®neur":2501,".]]":2502,"59":2503,"bla":2504,"cÃ©":2505,"dent":2506,"rin":2507,"Ġanci":2508,"ende":2509,"Ġpoudre":2510,"ish":2511,"ĠcÃ´":2512,"Ġcertif":2513,"unes":2514,"Ġ27":2515,"ĠMag":2516,"Ġvoit":2517,"ĠdÃ©s":2518,"Ġplat":2519,"ĠNor":2520,"ĠHe":2521,"Ġproduit":2522,"Ġ48":2523,"ĠKe":2524,"ĠKaiserslautern":2525,"Ġ1992":2526,"Ġdispar":2527,"ibles":2528,"ĠutilisÃ©e":2529,"php":2530,"ĠReg":2531,"ribu":2532,"Ġrencont":2533,"Ġzone":2534,"Ġmatchs":2535,"Ġseptembre":2536,"ceptionneuse":2537,"Ġvoici":2538,"ĠMichael":2539,"ĠprÃ©sident":2540,"31":2541,"67":2542,"Une":2543,"ki":2544,"ano":2545,"red":2546,"orge":2547,"Ġto":2548,"Ġbou":2549,"ĠÃ©t":2550,"ĠdÃ©cembre":2551,"oph":2552,"âĢĵ":2553,"ecords":2554,"Ġprend":2555,"Ġutilisent":2556,"ĠenregistrÃ©s":2557,"Ġnovembre":2558,"Ġcertaines":2559,"Ġpersonnes":2560,"Ġseul":2561,"Ġmembres":2562,"Ġpistolet":2563,"|[[":2564,"02":2565,"09":2566,"border":2567,"ction":2568,"gh":2569,"jou":2570,"rist":2571,"sa":2572,"tis":2573,"zig":2574,"ĠdÃ¨s":2575,"ones":2576,"Ġpou":2577,"Ġport":2578,"reu":2579,"tie":2580,"Ġmai":2581,"ĠfÃ©":2582,"Ġfem":2583,"Ġ()":2584,"Ġballes":2585,"ĠCo":2586,"roso":2587,"ĠgÃ©rÃ©":2588,"ĠDate":2589,"ĠDNS":2590,"Ġcombat":2591,"ĠrelÃ©g":2592,"ott":2593,"thlÃ¨te":2594,"Ġproduc":2595,"ody":2596,"Ġ2012":2597,"Ġ2024":2598,"forum":2599,"Ġappar":2600,"ative":2601,"ĠsuccÃ¨s":2602,"Ġassoci":2603,"Dans":2604,"St":2605,"ew":2606,"vet":2607,"Ġ00":2608,"ession":2609,"Ġsh":2610,"ouest":2611,"ley":2612,"limin":2613,"Ġfour":2614,"Ġfeu":2615,"Ġfourn":2616,"Ġtable":2617,"ĠLi":2618,"mite":2619,"Ġquali":2620,"cipe":2621,"Ġinc":2622,"Ġind":2623,"aite":2624,"Ġeurop":2625,"ultats":2626,"Ġ2002":2627,"Ġdiss":2628,"Ġclubs":2629,"ouvent":2630,"Ġoctobre":2631,"Ġtermine":2632,"ipzig":2633,"marÃ¨s":2634,"ĠCependant":2635,"Ġblanc":2636,"jpg":2637,"ĠfÃ©min":2638,"ĠeuropÃ©":2639,"The":2640,"balle":2641,"gel":2642,"mÃ©s":2643,"rs":2644,"vices":2645,"yan":2646,"Ã©ch":2647,"enir":2648,"Ġlib":2649,"Ġpage":2650,"Ġco":2651,"Ġcamp":2652,"arch":2653,"Ã¨rent":2654,"Ġtard":2655,"cht":2656,"Ġ28":2657,"ĠMal":2658,"ĠÃ©v":2659,"mir":2660,"ĠdÃ©si":2661,"taire":2662,"ateurs":2663,"Ġ1998":2664,"Ġ2015":2665,"ierre":2666,"Ġ2022":2667,"Ġfranc":2668,"Ġeffet":2669,"Ġrock":2670,"Ġconstruc":2671,"Ġlongueurs":2672,"Ġdemand":2673,"Ġpouvoir":2674,"Ġatteint":2675,"Ġinscriptions":2676,"origine":2677,"ĠsupÃ©rie":2678,"Ġprojectile":2679,"ĠcertifiÃ©":2680,"rosoft":2681,"53":2682,"domaine":2683,"mith":2684,"rÃª":2685,"ysi":2686,"Ġlang":2687,"Ġporte":2688,"ori":2689,"Ġmon":2690,"Ã¨te":2691,"alt":2692,"auche":2693,"Ġtant":2694,"rape":2695,"ĠÃ©ch":2696,"Ġvan":2697,"ĠPh":2698,"ĠPro":2699,"ĠBor":2700,"Ġgestion":2701,"ĠGran":2702,"Ġminutes":2703,"Ġcompte":2704,"Ġcaract":2705,"Ġnombreux":2706,"ĠcrÃ©Ã©":2707,"Ġconstitu":2708,"ĠMajor":2709,"ANN":2710,"Ġpetit":2711,"ĠpubliÃ©":2712,"Ġrapide":2713,"Ġbritannique":2714,"Ġcouleurs":2715,"ĠrÃ©seau":2716,"Ġcellpadding":2717,"!''":2718,"08":2719,"Af":2720,"gent":2721,"ly":2722,"longue":2723,"ena":2724,"anti":2725,"Ġdevant":2726,"inis":2727,"reen":2728,"Ġmasc":2729,"Ġfab":2730,"alliga":2731,"Ġtaille":2732,"Ġbure":2733,"ĠMais":2734,"ĠMill":2735,"ĠÃ©lec":2736,"Ġvari":2737,"ĠDurÃ©e":2738,"euf":2739,"ĠrÃ©els":2740,"ĠFramework":2741,"ĠHen":2742,"ables":2743,"ionalliga":2744,"aprÃ¨s":2745,"Ġ2009":2746,"ĠLeipzig":2747,"mÃ©di":2748,"Ġtel":2749,"ĠIls":2750,"Ġatt":2751,"Ġmars":2752,"2016":2753,"Ġlongueur":2754,"joint":2755,"tÃ©rieur":2756,"Ġsuivante":2757,"Ġentreprises":2758,"'s":2759,"78":2760,"Bri":2761,"IG":2762,"bur":2763,"ee":2764,"ham":2765,"iv":2766,"ice":2767,"kin":2768,"ogne":2769,"pro":2770,"su":2771,"Ã©poque":2772,"once":2773,"eter":2774,"Ã¨g":2775,"rÃ©es":2776,"Ġbat":2777,"ĠCes":2778,"Ġ23":2779,"ĠPays":2780,"ĠgrÃ©":2781,"Ġrela":2782,"Ġrevol":2783,"Ġ1999":2784,"Ġpris":2785,"position":2786,"Ġsera":2787,"forme":2788,"Ġtrava":2789,"Ġess":2790,"Ġfusil":2791,"Ġparticuli":2792,"ĠpiÃ¨":2793,"ĠRoyaume":2794,"170":2795,"260":2796,"49":2797,"52":2798,"89":2799,"Fran":2800,"atique":2801,"cul":2802,"date":2803,"gu":2804,"lus":2805,"rant":2806,"ulaire":2807,"Ġelles":2808,"ere":2809,"inal":2810,"Ġcelle":2811,"Ġcul":2812,"Ġmain":2813,"Ã¨mes":2814,"aute":2815,"sse":2816,"ĠMik":2817,"ĠÃ©limin":2818,"ĠRecords":2819,"Ġinst":2820,"ĠEd":2821,"Ġchez":2822,"Ġplan":2823,"otte":2824,"ĠJu":2825,"ĠJames":2826,"ondres":2827,"ull":2828,"Ġhommes":2829,"Ġcommun":2830,"Ġactif":2831,"Ġserve":2832,"ĠFranc":2833,"gorien":2834,"eaucoup":2835,"Ġpersonne":2836,"Ġrecul":2837,"risti":2838,"ĠdÃ©part":2839,"ĠamÃ©ricaine":2840,"Ġseulement":2841,"Ġconstr":2842,"Ġimport":2843,"Depuis":2844,"Ġallemande":2845,"fÃ©rence":2846,"Ġanglais":2847,"%;\"":2848,"130":2849,"400":2850,"480":2851,"Club":2852,"aÃ®":2853,"bie":2854,"berg":2855,"cons":2856,"fort":2857,"mati":2858,"ner":2859,"png":2860,"voy":2861,"xim":2862,"oni":2863,"rements":2864,"Ġcir":2865,"oly":2866,"ustr":2867,"ĠMic":2868,"ĠPo":2869,"ĠTom":2870,"Ġint":2871,"Ġchois":2872,"Ġ'''.":2873,"collapse":2874,"Ġdivers":2875,"Ġprovin":2876,"ublique":2877,"FFCCCC":2878,"Ġcontr":2879,"ĠcaractÃ©ris":2880,"Ġspor":2881,"Ã¢ce":2882,"2324":2883,"Ġofficiel":2884,"ocks":2885,"Ġbataille":2886,"Ġdemande":2887,"Ġfichier":2888,"Ġnationale":2889,"Ġlocomotives":2890,"ĠgrÃ©gorien":2891,"350":2892,"88":2893,"Qu":2894,"by":2895,"hui":2896,"ivers":2897,"mil":2898,"mont":2899,"zer":2900,"Ġus":2901,"ision":2902,"Ġsaints":2903,"Ġsouvent":2904,"Ġmal":2905,"itte":2906,"atoire":2907,"istan":2908,"Ġvoir":2909,"ĠDomaine":2910,"ĠTour":2911,"ĠRÃ©":2912,"ĠII":2913,"ambre":2914,"ĠNom":2915,"1999":2916,"uxelles":2917,"2024":2918,"odes":2919,"rightarm":2920,"Ġcependant":2921,"Ġ2017":2922,"Ġtradi":2923,"ĠJean":2924,"lection":2925,"tivement":2926,"ICANN":2927,"landais":2928,"Ġdouille":2929,"ĠdÃ©finition":2930,"Ġautour":2931,"Ġeffectu":2932,"Ġvictoire":2933,"07":2934,"95":2935,"bor":2936,"dat":2937,"mat":2938,"ote":2939,"por":2940,"scope":2941,"voir":2942,"×ĺ":2943,"×ŀ":2944,"×ł":2945,"Ġ×":2946,"Ġwww":2947,"esse":2948,"ĠpÃ©ri":2949,"Ġdemi":2950,"inf":2951,"Ġcad":2952,"Ġmode":2953,"iel":2954,"ieux":2955,"ĠMartin":2956,"ĠdÃ©cou":2957,"ĠdÃ©cl":2958,"tac":2959,"tÃ©es":2960,"Ġjam":2961,"ĠFer":2962,"ĠIs":2963,"ĠHar":2964,"Ġconsid":2965,"Ġdivis":2966,"ĠWilliam":2967,"2022":2968,"ucune":2969,"cessi":2970,"ĠChampion":2971,"jourd":2972,"2006":2973,"Ġ2021":2974,"Ġservices":2975,"Ġ1987":2976,"Ġcoup":2977,"ancer":2978,"noms":2979,"pagnie":2980,"Ġorig":2981,"Ġconcerne":2982,"ĠtÃ©lÃ©vision":2983,"Ġretour":2984,"Ã©tait":2985,"otsdam":2986,"ustralie":2987,"Ġfonction":2988,"Ġprogram":2989,"ĠRobert":2990,"Ġcinq":2991,"perficie":2992,"reuve":2993,";\"|":2994,"AR":2995,"ami":2996,"br":2997,"bin":2998,"ga":2999,"ose":3000,"pace":3001,"ville":3002,"vitÃ©":3003,"ya":3004,"Ã«":3005,"anne":3006,"Ġsoi":3007,"armes":3008,"Ġnot":3009,"ĠfrÃ©":3010,"rÃ©vi":3011,"olf":3012,"rait":3013,"Ġparc":3014,"ĠMo":3015,"ĠAnd":3016,"ĠAthlÃ¨te":3017,"ĠDes":3018,"ĠDon":3019,"ĠdÃ©j":3020,"Ġconser":3021,"Ġprojet":3022,"ingt":3023,"Ġ1994":3024,"Ġarrondissement":3025,"Ġsud":3026,"2012":3027,"Ġtermin":3028,"Ġremporte":3029,"Ã©cur":3030,"Ġorthodoxe":3031,"ĠCologne":3032,"Ġformat":3033,"ĠThom":3034,"Ã©tition":3035,"Ġtechnique":3036,"Ġprofession":3037,"ĠnÃ©cess":3038,"Division":3039,"Ġtableau":3040,"rapeau":3041,"Ġjamais":3042,"rÃ©viation":3043,"Aut":3044,"CP":3045,"Su":3046,"atif":3047,"lor":3048,"ms":3049,"mÃ©es":3050,"mÃªme":3051,"now":3052,"of":3053,"ste":3054,"sence":3055,"Ġeu":3056,"Ġdat":3057,"Ã©li":3058,"onst":3059,"inÃ©e":3060,"tien":3061,"Ġ|-":3062,"ĠÃ®":3063,"ĠBen":3064,"Ġ1980":3065,"Ġ1945":3066,"lam":3067,"lace":3068,"ĠrÃ©par":3069,"ĠreÃ§":3070,"aisse":3071,"ĠRÃ©g":3072,"oires":3073,"abrÃ©viation":3074,"ington":3075,"ĠVf":3076,"2023":3077,"ĠsiÃ¨ge":3078,"Ġ2013":3079,"tron":3080,"dess":3081,"Ġphysi":3082,"rown":3083,"Ġterrit":3084,"ĠYou":3085,"1998":3086,"ĠtÃ©lÃ©vis":3087,"Ġtrouve":3088,"Ġpropri":3089,"Ġfichiers":3090,"Ġsitu":3091,"Ġrapport":3092,"ĠfaÃ§":3093,"ĠcaractÃ¨res":3094,"ĠMicrosoft":3095,"ĠdÃ©jÃł":3096,"Ġprofessionn":3097,"68":3098,"72":3099,"85":3100,"=#":3101,"bli":3102,"dy":3103,"duite":3104,"ime":3105,"ight":3106,"ja":3107,"lu":3108,"mag":3109,"ses":3110,"van":3111,"wh":3112,"Ġ}}":3113,"Ġdonne":3114,"Ġpoids":3115,"ank":3116,"ini":3117,"rey":3118,"reurs":3119,"Ġsais":3120,"ĠsÃ©cur":3121,"Ġcri":3122,"Ġceux":3123,"ĠaÃ©ro":3124,"quelle":3125,"Ġlaquelle":3126,"Ġetc":3127,"ĠLong":3128,"riÃ¨re":3129,"Ġvale":3130,"ĠdÃ©nom":3131,"tadi":3132,"Ġreven":3133,"aissance":3134,"ĠRich":3135,"Ġinfin":3136,"ĠFor":3137,"less":3138,"ĠpremiÃ¨res":3139,"uire":3140,"ublic":3141,"Ġ44":3142,"Ġ45":3143,"compagn":3144,"Ġradi":3145,"Ġrend":3146,"agit":3147,"Ġposi":3148,"Ġarmes":3149,"ogÃ©":3150,"223":3151,"2017":3152,"avolo":3153,"Ġimages":3154,"ĠPremiÃ¨re":3155,"ensemble":3156,"anadi":3157,"ĠColt":3158,"ĠprÃ©sente":3159,"Ġjours":3160,"ĠchaÃ®ne":3161,"ĠDiavolo":3162,"Ġcela":3163,"ĠdiffusÃ©e":3164,"berliga":3165,"Ġcenter":3166,"ĠinfÃ©rie":3167,"RÃ©ceptionneuse":3168,"Ġchanson":3169,"Ġnaturel":3170,"Ġofficiellement":3171,"!'''''":3172,"240":3173,"86":3174,"CF":3175,"Lors":3176,"Si":3177,"ep":3178,"lÃ©s":3179,"ood":3180,"|''":3181,"Ã©t":3182,"Ġlun":3183,"onac":3184,"Ġpasse":3185,"Ġag":3186,"orthodoxe":3187,"arre":3188,"Ġmus":3189,"ĠmÃ¨tres":3190,"Ġmusic":3191,"Ġbeaucoup":3192,"ĠCr":3193,"ĠCon":3194,"ĠSS":3195,"ĠAb":3196,"ĠAucune":3197,"ĠBrown":3198,"lay":3199,"Ġchef":3200,"rang":3201,"ĠNouvelle":3202,"Ġ36":3203,"FFDA":3204,"ĠVi":3205,"8080":3206,"Ġpoint":3207,"Ġaccompagn":3208,"Ġ51":3209,"Ġparticipe":3210,"Ġ64":3211,"ancelier":3212,"Ġ2010":3213,"Ġ2018":3214,"rick":3215,"2007":3216,"pole":3217,"Ġmarche":3218,"ĠmarchÃ©":3219,"Ġ95":3220,"Ġplaces":3221,"Ġmesure":3222,"umber":3223,"view":3224,"jectif":3225,"Ġleftarm":3226,"ustrali":3227,"ĠprÃ©cÃ©dent":3228,"casion":3229,"IRIS":3230,"ĠGeorge":3231,"field":3232,"ĠRegionalliga":3233,"ĠcaractÃ©ristiques":3234,"FFDAB":3235,"71":3236,"76":3237,"AprÃ¨s":3238,"Groupe":3239,"Logo":3240,"Par":3241,"bert":3242,"cy":3243,"ev":3244,"iz":3245,"num":3246,"nison":3247,"odi":3248,"pa":3249,"vÃ©s":3250,"Ġi":3251,"Ġancien":3252,"Ġrightarm":3253,"ĠdurÃ©e":3254,"Ġdurant":3255,"entif":3256,"Ġpie":3257,"ina":3258,"Ġsocks":3259,"Ġam":3260,"temps":3261,"Ġmoy":3262,"union":3263,"Ġ180":3264,"ĠtÃªte":3265,"Ġunique":3266,"Ġbon":3267,"Ġbody":3268,"ĠCas":3269,"ĠCap":3270,"Ġdess":3271,"ĠSp":3272,"ĠSmith":3273,"ĠMur":3274,"ĠMay":3275,"Ġval":3276,"Ġvol":3277,"ĠPe":3278,"ĠPal":3279,"ĠPaul":3280,"ĠPotsdam":3281,"Ġquar":3282,"ĠBay":3283,"ĠrÃ©fÃ©rence":3284,"ĠRou":3285,"otti":3286,"ĠJapon":3287,"ĠNet":3288,"Ġ33":3289,"anda":3290,"Ġhaut":3291,"Ġhomme":3292,"Ġouvert":3293,"2025":3294,"Ġcompagn":3295,"illboard":3296,"Ġ2014":3297,"Ġ1989":3298,"ugene":3299,"ĠpossÃ¨de":3300,"Ġcharg":3301,"mberg":3302,"ĠdonnÃ©es":3303,"Ġsept":3304,"Ġprix":3305,"Ġcommandant":3306,"Ġbataillon":3307,"Ġlettres":3308,"ribution":3309,"Ġshorts":3310,"ĠÃ®les":3311,"onaco":3312,"!!":3313,"!.":3314,"370":3315,"440":3316,"82":3317,"ES":3318,"Saint":3319,"aur":3320,"eli":3321,"eff":3322,"fond":3323,"ko":3324,"ni":3325,"pk":3326,"pts":3327,"ren":3328,"sch":3329,"Ġ*":3330,"Ġ\\":3331,"Ã©f":3332,"inc":3333,"isÃ©":3334,"reur":3335,"Ġsuis":3336,"Ġsort":3337,"Ġsomme":3338,"tiÃ¨re":3339,"tiÃ¨me":3340,"arl":3341,"oman":3342,"Ġlabel":3343,"ĠÃĹ":3344,"ester":3345,"Ġfig":3346,"ĠLigue":3347,"ĠCy":3348,"Ġ29":3349,"ationale":3350,"ĠPer":3351,"Ġquand":3352,"ression":3353,"Ġ''.":3354,"ĠTim":3355,"ĠdÃ©par":3356,"tage":3357,"ĠRÃ©p":3358,"ney":3359,"Ġ42":3360,"Ġ43":3361,"imogÃ©":3362,"Ġprendre":3363,"Ġ2016":3364,"2005":3365,"obile":3366,"ilip":3367,"artouche":3368,"Ġterre":3369,"indre":3370,"ĠAnn":3371,"Ġenregistrements":3372,"munications":3373,"tionnels":3374,"icile":3375,"Ġsecondes":3376,"ĠlÃ©gende":3377,"afnic":3378,"portÃ©e":3379,"Ġperformance":3380,"ographie":3381,"Ġchasseurs":3382,"Ġstade":3383,"ĠadministrÃ©":3384,"Ġplatine":3385,"consultÃ©":3386,"ĠsÃ©curitÃ©":3387,"tadion":3388,"360":3389,"73":3390,"83":3391,"Fich":3392,"LR":3393,"NCF":3394,"SG":3395,"SÃ©rie":3396,"ail":3397,"lan":3398,"loy":3399,"tÃ©e":3400,"Ġsing":3401,"ara":3402,"Ġmag":3403,"Ġ101":3404,"Ġfai":3405,"ainz":3406,"ĠLondres":3407,"rid":3408,"ĠSi":3409,"ĠMont":3410,"Ġaujourd":3411,"ĠBur":3412,"ĠDu":3413,"Ġ'''',":3414,"eure":3415,"Ġja":3416,"dire":3417,"Ġchange":3418,"Ġsein":3419,"Ġpropose":3420,"}}}}":3421,"Ġ35":3422,"andis":3423,"ings":3424,"mÃ©n":3425,"verse":3426,"ĠarmÃ©es":3427,"Ġannonce":3428,"ĠprÃ¨s":3429,"quier":3430,"2002":3431,"2009":3432,"Ġtitres":3433,"Ġatta":3434,"Ġmarque":3435,"Ġplate":3436,"Ġ1988":3437,"Ãītat":3438,"ociation":3439,"ĠconsultÃ©":3440,"Ġexplo":3441,"ĠgrÃ¢ce":3442,"Ġchampionnats":3443,"pect":3444,"Ġmeilleur":3445,"ĠCharles":3446,"Ġnouvelles":3447,"istorique":3448,"Ġqualif":3449,"Ġfrancoph":3450,"Ġsportif":3451,"450":3452,"69":3453,"75":3454,"700":3455,"Centrale":3456,"EE":3457,"FB":3458,"bers":3459,"cTLD":3460,"do":3461,"gi":3462,"go":3463,"gment":3464,"oÃ®":3465,"vil":3466,"vain":3467,"yr":3468,"Ġx":3469,"ĠentraÃ®neur":3470,"ero":3471,"isÃ©s":3472,"isign":3473,"Ġcre":3474,"ouis":3475,"quet":3476,"Ġnord":3477,"auv":3478,"Ġtend":3479,"rage":3480,"ĠSNCF":3481,"ĠBas":3482,"ĠTra":3483,"ĠTrois":3484,"ĠrÃ©v":3485,"ĠrÃ©comp":3486,"tale":3487,"Ġ..":3488,"Ġins":3489,"Ġplut":3490,"aster":3491,"ĠJan":3492,"ĠJos":3493,"ĠJim":3494,"Ġconse":3495,"Ġ31":3496,"stra":3497,"Ġstat":3498,"utÃ©e":3499,"ĠWin":3500,"ĠrÃ¨g":3501,"uremberg":3502,"Ġtels":3503,"Ġaltern":3504,"Ġ53":3505,"Ġ2019":3506,"poli":3507,"uitar":3508,"Ġjouer":3509,"ĠUS":3510,"ĠcrÃ©er":3511,"ĠcrÃ©Ã©e":3512,"Ġtyp":3513,"tionnaire":3514,"Ġsymb":3515,"tension":3516,"Ġnouveaux":3517,"issant":3518,"ĠdÃ©fini":3519,"ĠdonnÃ©":3520,"Ġdistance":3521,"resses":3522,"Ġbuts":3523,"Ġdiffusion":3524,"DDDD":3525,"Ġjeune":3526,"Ġperformances":3527,"ĠrÃ©sidence":3528,"ĠSeconde":3529,"Ġgarnison":3530,"ĠpalmarÃ¨s":3531,"Ġaucun":3532,"Ġmultip":3533,"ĠMike":3534,"ustrie":3535,"taccess":3536,"ĠChampionnat":3537,"ĠtÃ©lÃ©visÃ©e":3538,"Ġvaleur":3539,"410":3540,"BC":3541,"Br":3542,"Denis":3543,"cer":3544,"cus":3545,"gl":3546,"gar":3547,"gend":3548,"histoire":3549,"oin":3550,"tta":3551,"xte":3552,"ÃĹ":3553,"Ġlar":3554,"Ġlog":3555,"inÃ©es":3556,"issent":3557,"Ġsom":3558,"Ġsci":3559,"Ġcro":3560,"ĠccTLD":3561,"quence":3562,"Ġmen":3563,"Ġmur":3564,"ats":3565,"riÃ¨me":3566,"rac":3567,"ĠCanada":3568,"Ġparfois":3569,"ĠMac":3570,"ĠauprÃ¨s":3571,"ĠÃ©lÃ©ment":3572,"Ġvi":3573,"Ġvia":3574,"Ġvingt":3575,"ĠPat":3576,"ĠAc":3577,"ĠAd":3578,"ĠAinsi":3579,"ĠAlex":3580,"ĠACP":3581,"seur":3582,"aise":3583,"Ġinform":3584,"ĠEst":3585,"ĠFin":3586,"Ġchamb":3587,"Ġsemi":3588,"ĠGuer":3589,"ĠHer":3590,"Ġcondi":3591,"Ġpropos":3592,"ĠVal":3593,"ĠVII":3594,"Ġextension":3595,"uck":3596,"iller":3597,"ĠCompagnie":3598,"ĠĠĠĠĠĠĠĠĠĠĠĠĠĠĠĠĠĠ":3599,"2001":3600,"2008":3601,"partie":3602,"lication":3603,"Ġ%'''":3604,"Ġlimite":3605,"Ġ1986":3606,"Ġnombreuses":3607,"issements":3608,"FFFFF":3609,"Ġlorsqu":3610,"ticles":3611,"ĠTele":3612,"ĠUnion":3613,"Ġbatailles":3614,"ĠmaniÃ¨re":3615,"Ã©tui":3616,"tudios":3617,"ĠquatriÃ¨me":3618,"Ġcandi":3619,"ĠmodÃ¨le":3620,"ĠbasÃ©":3621,"Ã©dition":3622,"chiquier":3623,"Ġchemins":3624,"ĠdÃ©veloppÃ©":3625,"Ġconstruction":3626,"ĠFrancfort":3627,"nowboard":3628,"ĠNetwork":3629,"ĠRÃ©publique":3630,"ĠplutÃ´t":3631,"74":3632,"77":3633,"Ph":3634,"cor":3635,"df":3636,"eurs":3637,"hi":3638,"hu":3639,"loit":3640,"pt":3641,"sur":3642,"yeg":3643,"Ġis":3644,"enue":3645,"onie":3646,"Ġcart":3647,"ĠcinÃ©":3648,"time":3649,"quÃ©":3650,"quie":3651,"itt":3652,"itu":3653,"ital":3654,"Ġnul":3655,"Ġense":3656,"ĠfÃªte":3657,"Ġtotal":3658,"Ġtandis":3659,"ources":3660,"ainque":3661,"ĠbÃ¢":3662,"ĠAss":3663,"sec":3664,"seille":3665,"ĠBo":3666,"Ġ'''''":3667,"ĠdÃ©mon":3668,"dif":3669,"ĠFF":3670,"ĠFFFFFF":3671,"action":3672,"actu":3673,"ast":3674,"ĠGame":3675,"ĠWh":3676,"Ġrue":3677,"ĠrÃ´le":3678,"3030":3679,"utilisation":3680,"embl":3681,"Ġ60":3682,"Ġutilise":3683,"ĠÃ©tape":3684,"anger":3685,"Ġperd":3686,"Ġ90":3687,"Ġadop":3688,"ĠInter":3689,"records":3690,"ĠDepuis":3691,"Ãīchiquier":3692,"tionnel":3693,"olutions":3694,"Ã©riques":3695,"Ġarrive":3696,"Ġmilliards":3697,"Ġobten":3698,"ANA":3699,"Ġchiff":3700,"Ġgrains":3701,"Ġmilitaire":3702,"ĠWalpole":3703,"Ġdroit":3704,"Ġdroite":3705,"rigade":3706,"Ġparticulier":3707,"ĠthÃ©":3708,"ĠsituÃ©":3709,"ĠdÃ©cimal":3710,"Ġdisponible":3711,"ĠKipyeg":3712,"ĠcÃ´tÃ©":3713,"Ġproduction":3714,"Ġ007":3715,"ĠdÃ©sign":3716,"Ġlangue":3717,"Fichier":3718,"=''":3719,"And":3720,"Hen":3721,"dit":3722,"dro":3723,"grÃ©":3724,"mann":3725,"oti":3726,"ront":3727,"tout":3728,"wis":3729,"ÃŃ":3730,"Ã©rÃ©e":3731,"Ã©lÃ¨":3732,"Ã©tÃ©s":3733,"era":3734,"inst":3735,"Ġcet":3736,"Ġcond":3737,"ary":3738,"article":3739,"ets":3740,"ett":3741,"urÃ©":3742,"Ġmou":3743,"Ġmort":3744,"Ġmise":3745,"ity":3746,"ĠÃİ":3747,"Ġfam":3748,"autre":3749,"auteur":3750,"Ġtrop":3751,"Ġ(''''":3752,"ĠLib":3753,"raire":3754,"ust":3755,"cef":3756,"Ġparmi":3757,"Ġ1914":3758,"Ġ''}}}}":3759,"ĠTX":3760,"oivent":3761,"dien":3762,"gement":3763,"otter":3764,"aspx":3765,"colspan":3766,"rouj":3767,"ĠNo":3768,"illeur":3769,"ĠWil":3770,"ĠVan":3771,"ĠVla":3772,"ĠOberliga":3773,"Ġaccep":3774,"iga":3775,"Ġprom":3776,"Ġutilisant":3777,"icham":3778,"Ġmaxim":3779,"Ġsuit":3780,"2015":3781,"EFA":3782,"uger":3783,"ĠMarie":3784,"Ġmess":3785,"ĠministÃ¨re":3786,"Ġconcert":3787,"omotive":3788,"ription":3789,"ĠrÃ©pond":3790,"000000":3791,"Ġcanon":3792,"Ġpetite":3793,"Ġfonctionn":3794,"Ġorganisations":3795,"Ġclip":3796,"ĠindÃ©p":3797,"burg":3798,"ristian":3799,"Ġsaisons":3800,"ĠGuerrouj":3801,"Ġcandidat":3802,"%;":3803,".,":3804,"430":3805,"97":3806,"AT":3807,"Cou":3808,"Des":3809,"Et":3810,"Ju":3811,"Nord":3812,"class":3813,"htaccess":3814,"iÃ¨res":3815,"line":3816,"no":3817,"pons":3818,"pattern":3819,"run":3820,"ral":3821,"sk":3822,"vaux":3823,"¡×Ļ":3824,"Ã³":3825,"ÃŁ":3826,"Ġder":3827,"enus":3828,"ensi":3829,"enci":3830,"Ġlour":3831,"Ġlien":3832,"Ġlogo":3833,"erts":3834,"inte":3835,"Ġsim":3836,"enta":3837,"orn":3838,"arme":3839,"Ġ|'''":3840,"light":3841,"ura":3842,"Ġfais":3843,"elli":3844,"ilt":3845,"aus":3846,"Ġ(Â«":3847,"ĠLuc":3848,"ĠLors":3849,"ĠLieu":3850,"Ġbr":3851,"Ġbalis":3852,"ĠCal":3853,"ĠSu":3854,"ĠSam":3855,"ĠSarre":3856,"Ġvend":3857,"ĠDa":3858,"ĠTen":3859,"Ġpours":3860,"new":3861,"nements":3862,"ĠIP":3863,"ĠGra":3864,"ĠNuremberg":3865,"endra":3866,"Ġ37":3867,"illeurs":3868,"Ġhistoire":3869,"Ġhaute":3870,"image":3871,"aith":3872,"2021":3873,"very":3874,"ĠChrist":3875,"Ġcollapse":3876,"alitÃ©s":3877,"ibilitÃ©":3878,"ĠutilisÃ©es":3879,"Ġfinalement":3880,"lÃ©ments":3881,"Ġ2023":3882,"ĠÃ©tabli":3883,"Ġserait":3884,"Ġmargin":3885,"Ã®le":3886,"Ġadresse":3887,"ĠgÃ©nie":3888,"alisÃ©":3889,"Ġoffici":3890,"Ġrecord":3891,"Ã©crit":3892,"Ġtransf":3893,"Ġ1963":3894,"topic":3895,"Ġseule":3896,"ĠtÃ©lÃ©ph":3897,"Ġsuivantes":3898,"Ġmilieu":3899,"Ã©titions":3900,"Ġmembre":3901,"ĠÃ©quipes":3902,"Ġretrouve":3903,"×ķ×ª":3904,"×ķ×ŀ":3905,"×Ļ×ł":3906,"efefef":3907,"black":3908,"ĠeuropÃ©enne":3909,"Ġrapidement":3910,"Ġmascul":3911,"IGN":3912,"ĠintÃ©g":3913,"Ġdiverses":3914,"×ĺ×":3915,"ĠRÃ©giment":3916,"Ġprofessionnel":3917,"ĠRichard":3918,"ĠrÃ©compense":3919,"ĠKipyegon":3920,"¡×Ļ×ķ×ŀ":3921,"150":3922,"63":3923,"DR":3924,"Drapeau":3925,"Esp":3926,"Europe":3927,"RA":3928,"cÃ©d":3929,"gg":3930,"her":3931,"igne":3932,"sy":3933,"yp":3934,"Â»":3935,"Ġâ":3936,"ĠĠĠčĊ":3937,"Ġlance":3938,"anim":3939,"isc":3940,"ree":3941,"leu":3942,"lev":3943,"tein":3944,"omatique":3945,"quÃ©e":3946,"Ġmerc":3947,"Ã¨nes":3948,"aud":3949,"oles":3950,"rich":3951,"rad":3952,"ray":3953,"Ġbor":3954,"ĠCent":3955,"ĠClub":3956,"Ġdesc":3957,"root":3958,"ĠSP":3959,"ĠSw":3960,"ĠSon":3961,"ĠSpr":3962,"ĠStar":3963,"Ġ230":3964,"ĠÃ©vÃ©":3965,"Ġvendre":3966,"medi":3967,"Ġquitte":3968,"ĠgÃ©":3969,"ĠrÃ©cup":3970,"Ġreti":3971,"Ġrecher":3972,"ĠRI":3973,"ĠRo":3974,"ĠRem":3975,"air":3976,"aies":3977,"Ġplup":3978,"oto":3979,"ost":3980,"ĠHong":3981,"Ġprot":3982,"Ġ32":3983,"Ġsurnom":3984,"1918":3985,"Ġ46":3986,"Ġ47":3987,"ĠWest":3988,"ĠprÃ©sence":3989,"Ġposition":3990,"Ġarticle":3991,"serv":3992,"ĠChlo":3993,"ormais":3994,"Ġparticip":3995,"Ġpromo":3996,"Ġutiliser":3997,"ĠutilisÃ©s":3998,"Ġ04":3999,"ĠĠĠĠĠĠĠĠĠĠĠĠĠĠĠĠĠĠĠ":4000,"ampagne":4001,"pargne":4002,"unitions":4003,"2010":4004,"2018":4005,"154":4006,"ĠInformation":4007,"akov":4008,"Ġtravers":4009,"Ãīnergie":4010,"formance":4011,"Ġcoureurs":4012,"ĠMarseille":4013,"ĠFCK":4014,"Ġrespons":4015,"Ġordinal":4016,"ĠsystÃ¨mes":4017,"azine":4018,"valu":4019,"ĠmathÃ©":4020,"Ġprincipalement":4021,"Ġprogres":4022,"Ġpopulaire":4023,"ĠBrun":4024,"ĠjournÃ©e":4025,"Ġdisponibles":4026,"Ġaucune":4027,"Ġmaintenant":4028,"ĠKevin":4029,"Ġfabric":4030,"Ġbureau":4031,"ĠMillau":4032,"Ġrevolvers":4033,"Ġprovince":4034,"ĠdÃ©clar":4035,"Autres":4036,"dessus":4037,"Ġjaune":4038,"Bruxelles":4039,"Ġcartes":4040,"Ġplupart":4041,"380":4042,"470":4043,"520":4044,"61":4045,"81":4046,":\"":4047,"Bas":4048,"IANA":4049,"Net":4050,"Stadion":4051,"UR":4052,"William":4053,"asi":4054,"ape":4055,"cÃ©e":4056,"ks":4057,"kova":4058,"prÃ©":4059,"pages":4060,"pdf":4061,"studio":4062,"vres":4063,"ys":4064,"zi":4065,"Å¡":4066,"ener":4067,"Ġlic":4068,"titre":4069,"ortÃ©":4070,"orld":4071,"arri":4072,"Ġ|''":4073,"unich":4074,"Ġeng":4075,"ause":4076,"aubourg":4077,"ource":4078,"rim":4079,"ras":4080,"ĠSV":4081,"ĠMi":4082,"ĠMk":4083,"ĠMat":4084,"Ġvu":4085,"ĠAw":4086,"ĠAut":4087,"ĠBu":4088,"ĠBell":4089,"laires":4090,"ĠTop":4091,"ĠrÃ©el":4092,"Ġref":4093,"dite":4094,"Ġchac":4095,"otes":4096,"vidu":4097,"abet":4098,"ube":4099,"ĠnommÃ©s":4100,"Ġhet":4101,"Ġ400":4102,"communications":4103,"ĠexÃ©cu":4104,"Ġpoing":4105,"Ġcoloni":4106,"Ġall":4107,"emmes":4108,"Ġ63":4109,"quiÃ¨me":4110,"ĠEnregist":4111,"2004":4112,"Ġsuff":4113,"mins":4114,"eures":4115,"2019":4116,"Ġadap":4117,"Ġadresses":4118,"355":4119,"versitÃ©":4120,"Ġ1981":4121,"Ġ1985":4122,"asseuse":4123,"Ġress":4124,"Ġjuli":4125,"Ġdirect":4126,"Ġformule":4127,"ocuments":4128,"ĠrÃ©public":4129,"Art":4130,"ĠdÃ©cide":4131,"Ġgrat":4132,"Ġanim":4133,"Ġpropul":4134,"ault":4135,"Ġpistolets":4136,"uropa":4137,"ĠrÃ©alisÃ©":4138,"Ġcommerciales":4139,"ĠscÃ¨ne":4140,"ylind":4141,"Ġancienne":4142,"ĠdÃ©sormais":4143,"longueurs":4144,"matiques":4145,"Ġorigin":4146,"ĠThomas":4147,"ĠVfB":4148,"ĠaÃ©roportÃ©e":4149,"Ġmusical":4150,"Ġpied":4151,"ĠTroisiÃ¨me":4152,"cussion":4153,"ĠAlexand":4154,"%\"|":4155,"340":4156,"84":4157,"87":4158,"Cent":4159,"Cet":4160,"MutÃ©e":4161,"OM":4162,"Pro":4163,"Sh":4164,"cle":4165,"den":4166,"eh":4167,"ein":4168,"gauche":4169,"green":4170,"iÃ©e":4171,"mor":4172,"mand":4173,"ove":4174,"tur":4175,"wood":4176,"za":4177,"Ã±":4178,"esis":4179,"esti":4180,"esson":4181,"incent":4182,"isco":4183,"Ġscore":4184,"Ġsoli":4185,"Ġcible":4186,"oment":4187,"quent":4188,"Ġmit":4189,"Ġmill":4190,"ater":4191,"Ġnous":4192,"Ġenvoy":4193,"estÃ©":4194,"Ġfaci":4195,"ĠunitÃ©s":4196,"ĠLar":4197,"ĠLimogÃ©":4198,"Ġbackground":4199,"chester":4200,"roche":4201,"ĠSe":4202,"ĠSal":4203,"Ġvert":4204,"Ġgauche":4205,"ĠDom":4206,"lair":4207,"ĠTor":4208,"ĠdÃ©lÃ©g":4209,"Ġjapon":4210,"ĠEsp":4211,"ĠEugene":4212,"ĠEuropa":4213,"asp":4214,"ĠGi":4215,"ĠGod":4216,"vide":4217,"viennent":4218,"ĠJam":4219,"ocation":4220,"occasion":4221,"abord":4222,"abine":4223,"Ã©rer":4224,"Ġhors":4225,"Ġrendre":4226,"Ġextra":4227,"Ãªmes":4228,"ager":4229,"ĠOut":4230,"Ġcommen":4231,"irrin":4232,"Ġacti":4233,"Ġgrands":4234,"heim":4235,"Ġseront":4236,"Ġdiffic":4237,"2011":4238,"ĠFranÃ§ais":4239,"ĠÃ©cri":4240,"alisation":4241,"ĠmÃ©t":4242,"Ġdevenu":4243,"Ġpuiss":4244,"1000":4245,"Ġreconn":4246,"ĠnumÃ©ration":4247,"ĠrÃ©sultats":4248,"Ġorient":4249,"Ġdirection":4250,"Ġmodif":4251,"Ġactuel":4252,"Ã©preuve":4253,"Åĵuvre":4254,"valent":4255,"ĠdÃ©cor":4256,"Ġexemples":4257,"Ġpropre":4258,"Ġconnu":4259,"ĠappelÃ©":4260,"Ġtoutefois":4261,"domains":4262,"domaines":4263,"ortable":4264,"Ġbataillons":4265,"Ġinclus":4266,"Ġlimit":4267,"Ġsimple":4268,"Ġfemme":4269,"ĠHenry":4270,"Ġattrib":4271,"Ġserveur":4272,"olymp":4273,"ĠcontrÃ´le":4274,"Ã«l":4275,"Ġterritoire":4276,"ĠdÃ©nommÃ©":4277,"odique":4278,"Ġvalue":4279,"Ġsingle":4280,"Ġfaible":4281,"Ġtypique":4282,"ainqueur":4283,"ĠbÃ¢ti":4284,"Ġpoursui":4285,"ĠrÃ©publicain":4286,"Col":4287,"Cac":4288,"Ryan":4289,"SS":4290,"Sa":4291,"Th":4292,"US":4293,"avec":4294,"fic":4295,"gouv":4296,"hack":4297,"house":4298,"ij":4299,"ker":4300,"kel":4301,"mois":4302,"pl":4303,"page":4304,"rom":4305,"rari":4306,"uelles":4307,"vitÃ©s":4308,"xe":4309,"Â²":4310,"Ġ80":4311,"Ġ).":4312,"Ġeux":4313,"Ġolymp":4314,"'').":4315,"ani":4316,"information":4317,"Ġsens":4318,"Ġsalle":4319,"Ġcelles":4320,"Ġcanadi":4321,"Ġcylind":4322,"tiens":4323,"entrÃ©e":4324,"arrondissement":4325,"articles":4326,"omon":4327,"Ġmorce":4328,"Ġmoment":4329,"Ġneuf":4330,"Ġfil":4331,"eld":4332,"ilis":4333,"rir":4334,"riers":4335,"ĠbÃ©n":4336,"Ġbrigade":4337,"ĠCert":4338,"ĠStu":4339,"Ġparvient":4340,"ĠÃ©tudi":4341,"Ġvoire":4342,"ĠPet":4343,"ĠPau":4344,"ĠPop":4345,"ĠAir":4346,"Ġquestion":4347,"Ġ1970":4348,"cident":4349,"ĠTilt":4350,"table":4351,"termin":4352,"ĠRab":4353,"ĠRock":4354,"opÃ©ration":4355,"oten":4356,"ases":4357,"ĠIt":4358,"ranche":4359,"erson":4360,"ĠNation":4361,"ĠNIC":4362,"ĠNew":4363,"ĠHass":4364,"Ġconver":4365,"Ġdiman":4366,"Ġprovo":4367,"Ġnommage":4368,"ĠWeb":4369,"ĠWesson":4370,"prise":4371,"ado":4372,"ardo":4373,"Ġart":4374,"ĠChristian":4375,"Ġ52":4376,"Ġ68":4377,"Ġ05":4378,"Ã©rations":4379,"Ġsuites":4380,"Ã´ts":4381,"Ġavaient":4382,"Ġadjectif":4383,"ĠrÃ©guli":4384,"Ġ1982":4385,"ĠAll":4386,"tionnelle":4387,"Ġpuissance":4388,"ĠfrÃ¨re":4389,"ĠMaj":4390,"Ġrose":4391,"Char":4392,"sieux":4393,"ArmÃ©e":4394,"enregistrer":4395,"ldots":4396,"Ġtours":4397,"Ġdouble":4398,"ĠsupplÃ©ment":4399,"CCCCCC":4400,"encer":4401,"ĠtournÃ©":4402,"ĠdÃ©roulant":4403,"Ġjournal":4404,"orters":4405,"Ġutile":4406,"Ã¡n":4407,"ĠTerre":4408,"ĠMagde":4409,"ĠNorv":4410,"Ġdisparition":4411,"ĠrelÃ©gation":4412,"Ġcampagne":4413,"ĠÃ©lectron":4414,"Ġtravail":4415,"ĠpiÃ¨ce":4416,"ĠpiÃ¨ces":4417,"aÃ®t":4418,"ĠpÃ©riode":4419,"ĠFerrari":4420,"Ġsoient":4421,"ĠfaÃ§on":4422,"Ġlundi":4423,"ĠexploitÃ©":4424,"ĠÃ©vÃ©nements":4425,"Ġvendredi":4426,"arrivÃ©e":4427,"Cacographie":4428,".}}":4429,"93":4430,"Car":4431,"Date":4432,"IL":4433,"Martin":4434,"Or":4435,"aque":4436,"fc":4437,"gov":4438,"gold":4439,"hab":4440,"hÃ´":4441,"mus":4442,"mainz":4443,"nie":4444,"oo":4445,"ool":4446,"tg":4447,"ty":4448,"ules":4449,"web":4450,"wick":4451,"yana":4452,"ãĥ":4453,"Ġdoivent":4454,"Ã©on":4455,"eng":4456,"erd":4457,"Ġpay":4458,"ink":4459,"redi":4460,"Ġsol":4461,"Ġsus":4462,"Ġstudio":4463,"Ġcam":4464,"tiennent":4465,"lid":4466,"Ġmor":4467,"Ġmille":4468,"Ġmauv":4469,"Ġenfant":4470,"ests":4471,"Ġfra":4472,"Ġfix":4473,"gnes":4474,"ala":4475,"als":4476,"ilan":4477,"ĠunitÃ©":4478,"Ġ('''":4479,"ratique":4480,"chant":4481,"ros":4482,"ĠSing":4483,"ĠMer":4484,"ĠMerc":4485,"ĠÃ©tu":4486,"ĠÃ©vol":4487,"ĠÃ©lÃ©ments":4488,"ĠvÃ©":4489,"Ġvra":4490,"ĠBale":4491,"pement":4492,"Ġgrou":4493,"Ġguer":4494,"Ġgraph":4495,"Ġ1950":4496,"Ġ1960":4497,"ĠDan":4498,"ĠDanie":4499,"ĠTony":4500,"taires":4501,"Ġrev":4502,"oix":4503,"ĠintÃ©":4504,"dimir":4505,"ĠchrÃ©":4506,"Ġchancelier":4507,"astique":4508,"amment":4509,"vid":4510,"ĠNumber":4511,"ĠHor":4512,"stÃ¨me":4513,"ulu":4514,"Ġhi":4515,"Ġ49":4516,"idan":4517,"ĠKent":4518,"ĠKar":4519,"Ġray":4520,"Ġrationnels":4521,"Ġroman":4522,"adjoint":4523,"uisse":4524,"306":4525,"ĠprÃ©v":4526,"Ġcontrat":4527,"ĠcompÃ©tition":4528,"4020":4529,"Ġfondation":4530,"Ã§ant":4531,"2000":4532,"obi":4533,"Ġmaj":4534,"parl":4535,"Ġtrain":4536,"2014":4537,"ĠFrank":4538,"finale":4539,"158":4540,"lications":4541,"insch":4542,"Ã©riel":4543,"aka":4544,"Ãīpargne":4545,"ĠAngel":4546,"Ġlorsque":4547,"onneur":4548,"Ġnote":4549,"Ġconsole":4550,"ĠnumÃ©ral":4551,"ĠrÃ©sul":4552,"ĠdÃ©pÃ´ts":4553,"ĠJeff":4554,"mars":4555,"Illes":4556,"Ġ1968":4557,"Ġsemble":4558,"Ġconcern":4559,"entier":4560,"ĠMaur":4561,"Ã¼d":4562,"Ã¼ck":4563,"Ġpolice":4564,"Ġtrouver":4565,"Ġsuivants":4566,"max":4567,"more":4568,"berlin":4569,"ĠpassÃ©":4570,"kele":4571,"031":4572,"ĠdÃ©fense":4573,"Ġhabit":4574,"Ġadministra":4575,"Ġchansons":4576,"Ġemploy":4577,"ĠVerisign":4578,"Ġdomicile":4579,"ĠcomposÃ©":4580,"ĠBelg":4581,"Ġanciens":4582,"ĠÃ©tend":4583,"Ġfemmes":4584,"ĠrelÃ©guÃ©":4585,"gelo":4586,"longueur":4587,"Brien":4588,"Ġparticuliers":4589,"ĠPoints":4590,"Ġprogramme":4591,"Ġphysique":4592,"Ġuniquement":4593,"Ġstatut":4594,"Ġbalistiques":4595,"Ġmercredi":4596,"ĠRemington":4597,"Ġprogressi":4598,"Ġcoloniale":4599,"ĠmillÃ©n":4600,"ĠattribuÃ©":4601,"ĠNorvÃ¨ge":4602,"ĠBalears":4603,"/#":4604,"900":4605,"Australie":4606,"IN":4607,"LE":4608,"Min":4609,"Monaco":4610,"Sc":4611,"ZÃ©":4612,"ey":4613,"iments":4614,"ji":4615,"mg":4616,"men":4617,"pst":4618,"sg":4619,"tv":4620,"tation":4621,"uter":4622,"uelle":4623,"vitesse":4624,"Ðº":4625,"Ġer":4626,"espace":4627,"enenis":4628,"Ġloi":4629,"anal":4630,"Ġaj":4631,"Ġait":4632,"arpa":4633,"tevet":4634,"etes":4635,"urer":4636,"uration":4637,"ung":4638,"unn":4639,"unitÃ©":4640,"Ġlegend":4641,"Ġnor":4642,"ĠnÃ©g":4643,"Ġnoir":4644,"Ġnuit":4645,"Ġnaissance":4646,"ĠfÃ©d":4647,"Ã¨les":4648,"alerie":4649,"Ġtu":4650,"Ġtent":4651,"ĠLie":4652,"rages":4653,"raeli":4654,"ĠSC":4655,"ĠSc":4656,"ĠSol":4657,"ĠSta":4658,"ĠSaison":4659,"ĠMon":4660,"ĠMak":4661,"ĠMunich":4662,"Ġvue":4663,"Ġvous":4664,"Ġvainqueur":4665,"ĠPa":4666,"ĠPÃ©":4667,"ĠPont":4668,"ĠPoli":4669,"ĠPeter":4670,"signe":4671,"ĠAP":4672,"ĠAustralie":4673,"Ġquanti":4674,"see":4675,"search":4676,"ĠBou":4677,"ĠBoy":4678,"peur":4679,"Ġ1948":4680,"lad":4681,"las":4682,"Ġrevient":4683,"Ġinvent":4684,"ĠFaith":4685,"ĠFemmes":4686,"Ġcher":4687,"ophe":4688,"aide":4689,"Ġplomb":4690,"tug":4691,"aming":4692,"ĠJon":4693,"annel":4694,"ĠNorm":4695,"ĠHommes":4696,"ĠconÃ§":4697,"str":4698,"Ġstock":4699,"ult":4700,"ĠVB":4701,"spi":4702,"Ġracc":4703,"2020":4704,"administ":4705,"ardin":4706,"Ãªve":4707,"ĠsiÃ¨":4708,"agÃ©":4709,"cesseur":4710,"Ġarme":4711,"Ġcontenant":4712,"Ġcompil":4713,"ĠChem":4714,"ĠChambre":4715,"igh":4716,"Ġ56":4717,"UnitÃ©":4718,"onnÃ©es":4719,"lassement":4720,"2003":4721,"Ġsuper":4722,"2013":4723,"Ġlibre":4724,"Ġ1983":4725,"oncÃ©":4726,"industrie":4727,"Ġcouver":4728,"ĠMark":4729,"okal":4730,"Ġrespec":4731,"Ġreconst":4732,"ĠamÃ©li":4733,"entraÃ®":4734,"Ġcertain":4735,"Ġ1964":4736,"Ġpresse":4737,"Ġmoteur":4738,"Ġmillion":4739,"1997":4740,"Ã¼r":4741,"ĠrÃ©pand":4742,"Ġveut":4743,"Ġpermettant":4744,"matique":4745,"issue":4746,"duction":4747,"Ġsoumis":4748,"ĠBeatles":4749,"ĠBekele":4750,"Ġprincipal":4751,"Ġinternationale":4752,"ailleurs":4753,"Ġrouge":4754,"Ġcivil":4755,"Ġfusion":4756,"Ġcompris":4757,"ĠremplacÃ©":4758,"DiamÃ¨tre":4759,"outefois":4760,"Ġreprend":4761,"ĠappelÃ©e":4762,"Ġmission":4763,"Ġlettre":4764,"ĠentitÃ©s":4765,"Ġproducteur":4766,"Ġfourmis":4767,"ĠsupÃ©rieur":4768,"rÃªt":4769,"Brian":4770,"Ġcommunau":4771,"Ġserveurs":4772,"viewtopic":4773,"numÃ©ro":4774,"ĠWinchester":4775,"ttaquante":4776,"Ġsommet":4777,"droite":4778,"ĠVladimir":4779,"Ġdimanche":4780,"ĠMajestÃ©":4781,"ĠchrÃ©tiens":4782,"enenisa":4783,"\",":4784,")''":4785,",}":4786,"280":4787,"98":4788,"=_":4789,"AP":4790,"Avec":4791,"Bonne":4792,"Ces":4793,"Canada":4794,"DurÃ©e":4795,"Fer":4796,"Ge":4797,"Gu":4798,"Guitar":4799,"Li":4800,"On":4801,"PA":4802,"Pierre":4803,"Son":4804,"aill":4805,"bes":4806,"bon":4807,"ek":4808,"eatles":4809,"face":4810,"hic":4811,"hem":4812,"iana":4813,"kn":4814,"lova":4815,"mond":4816,"uf":4817,"uteur":4818,"yam":4819,"{,}":4820,"Ã©qui":4821,"Ġlanc":4822,"Ġple":4823,"Ġpages":4824,"iner":4825,"inaire":4826,"isme":4827,"isodes":4828,"ĠcÃ©lÃ¨":4829,"tir":4830,"titÃ©s":4831,"Ġaustrali":4832,"ores":4833,"ark":4834,"ares":4835,"quig":4836,"lif":4837,"uri":4838,"urait":4839,"atis":4840,"alli":4841,"illa":4842,"auss":4843,"autor":4844,"ĠLy":4845,"ĠLand":4846,"racht":4847,"Ġbord":4848,"Ġbless":4849,"Ġbuteur":4850,"ĠCour":4851,"ĠCont":4852,"chart":4853,"ĠMau":4854,"Ġvar":4855,"Ġvir":4856,"ĠPierre":4857,"ĠBern":4858,"ĠBataille":4859,"Ġgib":4860,"Ġgaz":4861,"Ġ1940":4862,"Ġ1944":4863,"ĠdÃ©com":4864,"ĠdÃ©tr":4865,"tali":4866,"Ġretra":4867,"ĠFilm":4868,"rand":4869,"ranger":4870,"ther":4871,"ĠHD":4872,"ĠHay":4873,"abilitÃ©":4874,"Ġ39":4875,"Ġsurtout":4876,"ĠWinsch":4877,"Ġ107":4878,"ader":4879,"agu":4880,"Ġartis":4881,"ienne":4882,"Ã©nergie":4883,"irk":4884,"ĠChannel":4885,"Ġcollection":4886,"utiliser":4887,"Ġalph":4888,"vise":4889,"ĠprÃª":4890,"Ġprise":4891,"Ġsection":4892,"aller":4893,"ĠÃ©tabl":4894,"paravant":4895,"intracht":4896,"ĠliÃ©es":4897,"Ġoccup":4898,"Ġ1984":4899,"Ã»ne":4900,"Ġcourt":4901,"Ãīquipe":4902,"ĠimmÃ©di":4903,"Ġcoupe":4904,"Ġjeudi":4905,"importe":4906,"oleil":4907,"ĠconsÃ©":4908,"link":4909,"ĠdÃ©pÃ´t":4910,"Ġexpri":4911,"Ġ1972":4912,"Ġoblig":4913,"Ġformation":4914,"Ġroi":4915,"Ġpolici":4916,"Ġvapeur":4917,"ĠlÃ©gÃ¨re":4918,"Ġpermettre":4919,"Ġaccord":4920,"contrat":4921,"uella":4922,"Ġsupporters":4923,"Ġpouvaient":4924,"ĠMeilleur":4925,"Ġactuellement":4926,"Ġroute":4927,"Ġconfig":4928,"Ġmeilleure":4929,"Ġcomprend":4930,"ĠCarl":4931,"ĠdÃ©roulÃ©s":4932,"Ġpopulation":4933,"ĠSteve":4934,"ĠDisraeli":4935,"Ann":4936,"Station":4937,"ĠÃ©viter":4938,"Ġbureaux":4939,"Ġrevolver":4940,"France":4941,"Ġculture":4942,"Ġconstruit":4943,"Ġcadre":4944,"cessible":4945,"ĠnÃ©cessaire":4946,"ĠpropriÃ©ta":4947,"white":4948,"ĠCasull":4949,"Ġquartier":4950,"Ġcompagnie":4951,"Ġensemble":4952,"Ġmouvement":4953,"Ġfamille":4954,"Ġrecherche":4955,"Ġmitra":4956,"ĠbÃ¢timent":4957,"30614":4958,"ĠAngeles":4959,"ĠBelgique":4960,"ĠWinschoten":4961,"/~":4962,"550":4963,";&":4964,"Bundesliga":4965,"Cartouche":4966,"Don":4967,"EC":4968,"IT":4969,"Je":4970,"Me":4971,"Mac":4972,"OT":4973,"PR":4974,"Per":4975,"Passeuse":4976,"SP":4977,"SV":4978,"Saints":4979,"TV":4980,"Te":4981,"bit":4982,"con":4983,"cour":4984,"cription":4985,"dd":4986,"edu":4987,"ears":4988,"gÃ©":4989,"gence":4990,"hana":4991,"ige":4992,"ky":4993,"neuf":4994,"ple":4995,"pal":4996,"platin":4997,"romaine":4998,"tou":4999}